/* Copyright 2019 The TensorFlow Authors. All Rights Reserved.

Licensed under the Apache License, Version 2.0 (the "License");
you may not use this file except in compliance with the License.
You may obtain a copy of the License at

    http://www.apache.org/licenses/LICENSE-2.0

Unless required by applicable law or agreed to in writing, software
distributed under the License is distributed on an "AS IS" BASIS,
WITHOUT WARRANTIES OR CONDITIONS OF ANY KIND, either express or implied.
See the License for the specific language governing permissions and
limitations under the License.
==============================================================================*/

// Automatically created from a TensorFlow Lite flatbuffer using the command:
// xxd -i magic_wand_model.tflite > magic_wand_model_data.cc
// See the README for a full description of the creation process.

#include "magic_wand_model_data.h"
//#include "Nicla_System.h"
#include "Arduino.h"
//#include "Arduino_BHY2.h"
// Keep model aligned to 8 bytes to guarantee aligned 64-bit accesses.
alignas(8) const unsigned char g_magic_wand_model_data[] =  {
  0x1c, 0x00, 0x00, 0x00, 0x54, 0x46, 0x4c, 0x33, 0x14, 0x00, 0x20, 0x00,
  0x1c, 0x00, 0x18, 0x00, 0x14, 0x00, 0x10, 0x00, 0x0c, 0x00, 0x00, 0x00,
  0x08, 0x00, 0x04, 0x00, 0x14, 0x00, 0x00, 0x00, 0x1c, 0x00, 0x00, 0x00,
  0x80, 0x00, 0x00, 0x00, 0xd8, 0x00, 0x00, 0x00, 0x00, 0xe2, 0x00, 0x00,
  0x10, 0xe2, 0x00, 0x00, 0x0c, 0xf5, 0x00, 0x00, 0x03, 0x00, 0x00, 0x00,
  0x01, 0x00, 0x00, 0x00, 0x04, 0x00, 0x00, 0x00, 0x0a, 0x1c, 0xff, 0xff,
  0x0c, 0x00, 0x00, 0x00, 0x1c, 0x00, 0x00, 0x00, 0x38, 0x00, 0x00, 0x00,
  0x0f, 0x00, 0x00, 0x00, 0x73, 0x65, 0x72, 0x76, 0x69, 0x6e, 0x67, 0x5f,
  0x64, 0x65, 0x66, 0x61, 0x75, 0x6c, 0x74, 0x00, 0x01, 0x00, 0x00, 0x00,
  0x04, 0x00, 0x00, 0x00, 0x9c, 0xff, 0xff, 0xff, 0x16, 0x00, 0x00, 0x00,
  0x04, 0x00, 0x00, 0x00, 0x07, 0x00, 0x00, 0x00, 0x64, 0x65, 0x6e, 0x73,
  0x65, 0x5f, 0x35, 0x00, 0x01, 0x00, 0x00, 0x00, 0x04, 0x00, 0x00, 0x00,
  0x82, 0x1e, 0xff, 0xff, 0x04, 0x00, 0x00, 0x00, 0x07, 0x00, 0x00, 0x00,
  0x69, 0x6e, 0x70, 0x75, 0x74, 0x5f, 0x33, 0x00, 0x02, 0x00, 0x00, 0x00,
  0x34, 0x00, 0x00, 0x00, 0x04, 0x00, 0x00, 0x00, 0xdc, 0xff, 0xff, 0xff,
  0x19, 0x00, 0x00, 0x00, 0x04, 0x00, 0x00, 0x00, 0x13, 0x00, 0x00, 0x00,
  0x43, 0x4f, 0x4e, 0x56, 0x45, 0x52, 0x53, 0x49, 0x4f, 0x4e, 0x5f, 0x4d,
  0x45, 0x54, 0x41, 0x44, 0x41, 0x54, 0x41, 0x00, 0x08, 0x00, 0x0c, 0x00,
  0x08, 0x00, 0x04, 0x00, 0x08, 0x00, 0x00, 0x00, 0x18, 0x00, 0x00, 0x00,
  0x04, 0x00, 0x00, 0x00, 0x13, 0x00, 0x00, 0x00, 0x6d, 0x69, 0x6e, 0x5f,
  0x72, 0x75, 0x6e, 0x74, 0x69, 0x6d, 0x65, 0x5f, 0x76, 0x65, 0x72, 0x73,
  0x69, 0x6f, 0x6e, 0x00, 0x1a, 0x00, 0x00, 0x00, 0x24, 0xe1, 0x00, 0x00,
  0x1c, 0xe1, 0x00, 0x00, 0x08, 0xe1, 0x00, 0x00, 0xe4, 0xe0, 0x00, 0x00,
  0xd0, 0xe0, 0x00, 0x00, 0xb8, 0xe0, 0x00, 0x00, 0xf8, 0xde, 0x00, 0x00,
  0x28, 0xde, 0x00, 0x00, 0x98, 0x01, 0x00, 0x00, 0x28, 0x01, 0x00, 0x00,
  0x00, 0x01, 0x00, 0x00, 0xec, 0x00, 0x00, 0x00, 0xe4, 0x00, 0x00, 0x00,
  0xdc, 0x00, 0x00, 0x00, 0xd4, 0x00, 0x00, 0x00, 0xcc, 0x00, 0x00, 0x00,
  0xc4, 0x00, 0x00, 0x00, 0xbc, 0x00, 0x00, 0x00, 0xb4, 0x00, 0x00, 0x00,
  0xac, 0x00, 0x00, 0x00, 0xa4, 0x00, 0x00, 0x00, 0x9c, 0x00, 0x00, 0x00,
  0x94, 0x00, 0x00, 0x00, 0x8c, 0x00, 0x00, 0x00, 0x6c, 0x00, 0x00, 0x00,
  0x04, 0x00, 0x00, 0x00, 0x5e, 0x1f, 0xff, 0xff, 0x04, 0x00, 0x00, 0x00,
  0x58, 0x00, 0x00, 0x00, 0x0c, 0x00, 0x00, 0x00, 0x08, 0x00, 0x0e, 0x00,
  0x08, 0x00, 0x04, 0x00, 0x08, 0x00, 0x00, 0x00, 0x10, 0x00, 0x00, 0x00,
  0x28, 0x00, 0x00, 0x00, 0x00, 0x00, 0x06, 0x00, 0x08, 0x00, 0x04, 0x00,
  0x06, 0x00, 0x00, 0x00, 0x04, 0x00, 0x00, 0x00, 0x01, 0x00, 0x00, 0x00,
  0xeb, 0x03, 0x00, 0x00, 0x00, 0x00, 0x0a, 0x00, 0x10, 0x00, 0x0c, 0x00,
  0x08, 0x00, 0x04, 0x00, 0x0a, 0x00, 0x00, 0x00, 0x02, 0x00, 0x00, 0x00,
  0x02, 0x00, 0x00, 0x00, 0x04, 0x00, 0x00, 0x00, 0x05, 0x00, 0x00, 0x00,
  0x32, 0x2e, 0x39, 0x2e, 0x31, 0x00, 0x00, 0x00, 0xc2, 0x1f, 0xff, 0xff,
  0x04, 0x00, 0x00, 0x00, 0x10, 0x00, 0x00, 0x00, 0x31, 0x2e, 0x31, 0x34,
  0x2e, 0x30, 0x00, 0x00, 0x00, 0x00, 0x00, 0x00, 0x00, 0x00, 0x00, 0x00,
  0x84, 0x0d, 0xff, 0xff, 0x88, 0x0d, 0xff, 0xff, 0x8c, 0x0d, 0xff, 0xff,
  0x90, 0x0d, 0xff, 0xff, 0x94, 0x0d, 0xff, 0xff, 0x98, 0x0d, 0xff, 0xff,
  0x9c, 0x0d, 0xff, 0xff, 0xa0, 0x0d, 0xff, 0xff, 0xa4, 0x0d, 0xff, 0xff,
  0xa8, 0x0d, 0xff, 0xff, 0xac, 0x0d, 0xff, 0xff, 0xb0, 0x0d, 0xff, 0xff,
  0x0e, 0x20, 0xff, 0xff, 0x04, 0x00, 0x00, 0x00, 0x04, 0x00, 0x00, 0x00,
  0x07, 0x00, 0x00, 0x00, 0x1e, 0x20, 0xff, 0xff, 0x04, 0x00, 0x00, 0x00,
  0x18, 0x00, 0x00, 0x00, 0x4f, 0x9a, 0x59, 0x68, 0x88, 0xa5, 0xb7, 0xce,
  0x7f, 0x48, 0x3e, 0x4f, 0x7b, 0xa9, 0x30, 0x64, 0x72, 0xc6, 0x25, 0x44,
  0x69, 0x8d, 0x5c, 0x42, 0x42, 0x20, 0xff, 0xff, 0x04, 0x00, 0x00, 0x00,
  0x60, 0x00, 0x00, 0x00, 0x12, 0x00, 0x00, 0x00, 0x10, 0x00, 0x00, 0x00,
  0x17, 0x00, 0x00, 0x00, 0x03, 0x00, 0x00, 0x00, 0x27, 0x00, 0x00, 0x00,
  0x38, 0x00, 0x00, 0x00, 0xec, 0xff, 0xff, 0xff, 0xf7, 0xff, 0xff, 0xff,
  0x15, 0x00, 0x00, 0x00, 0x21, 0x00, 0x00, 0x00, 0x24, 0x00, 0x00, 0x00,
  0x20, 0x00, 0x00, 0x00, 0x08, 0x00, 0x00, 0x00, 0x0d, 0x00, 0x00, 0x00,
  0x1a, 0x00, 0x00, 0x00, 0x12, 0x00, 0x00, 0x00, 0x09, 0x00, 0x00, 0x00,
  0x5b, 0x00, 0x00, 0x00, 0x17, 0x00, 0x00, 0x00, 0x23, 0x00, 0x00, 0x00,
  0xfc, 0xff, 0xff, 0xff, 0x5b, 0x00, 0x00, 0x00, 0xfb, 0xff, 0xff, 0xff,
  0x1b, 0x00, 0x00, 0x00, 0xae, 0x20, 0xff, 0xff, 0x04, 0x00, 0x00, 0x00,
  0x80, 0xdc, 0x00, 0x00, 0xfd, 0x0f, 0x01, 0xf3, 0x00, 0xf3, 0xfa, 0xf7,
  0x07, 0xfc, 0xff, 0xfa, 0x06, 0x07, 0xf7, 0xee, 0x0c, 0x0d, 0x05, 0x01,
  0x07, 0xf4, 0x04, 0xfa, 0xfe, 0x09, 0x00, 0xee, 0xff, 0x0b, 0xfc, 0xff,
  0x0b, 0xf3, 0xfb, 0x03, 0xf6, 0x01, 0xf7, 0x07, 0x05, 0x0b, 0x00, 0x03,
  0x01, 0xf5, 0xfe, 0xfc, 0xff, 0x03, 0x07, 0x07, 0xf9, 0xfc, 0xf8, 0x09,
  0xf7, 0xf4, 0xfd, 0x0a, 0x0f, 0x0b, 0x08, 0xfa, 0x0f, 0xff, 0x07, 0xff,
  0x01, 0xee, 0x0c, 0x00, 0x00, 0x18, 0xfe, 0x04, 0x01, 0xfe, 0x01, 0x05,
  0x27, 0xf1, 0x05, 0x06, 0x03, 0xfa, 0xed, 0x05, 0x07, 0x0c, 0xfc, 0x02,
  0x05, 0xf8, 0x0a, 0x07, 0x06, 0x07, 0xfa, 0x05, 0xf8, 0xf9, 0xfe, 0x09,
  0xf9, 0xfb, 0xf7, 0x0d, 0x02, 0x06, 0x04, 0xfb, 0x13, 0x0c, 0x09, 0xf8,
  0x05, 0xf2, 0x05, 0x00, 0xf5, 0x04, 0xff, 0xf6, 0xf9, 0x02, 0x03, 0xf7,
  0x2b, 0xf6, 0x07, 0xf0, 0xf8, 0xeb, 0xf5, 0x0b, 0xf7, 0x09, 0x08, 0x02,
  0x01, 0xfd, 0x10, 0x05, 0xfb, 0x0a, 0x00, 0xf5, 0xf7, 0xfa, 0xfe, 0x04,
  0x08, 0x09, 0x06, 0xfa, 0x0b, 0x0a, 0x05, 0xfb, 0x0a, 0x0b, 0x0c, 0x00,
  0x02, 0xe9, 0x12, 0x03, 0xfc, 0x00, 0xfd, 0xfb, 0x01, 0x03, 0x07, 0xfe,
  0x1e, 0x00, 0xfe, 0x02, 0xff, 0xfb, 0xee, 0x01, 0xf7, 0x09, 0x04, 0xfa,
  0xfc, 0xff, 0x0b, 0xfd, 0x09, 0x07, 0xfb, 0xf7, 0xfc, 0xf6, 0x07, 0x07,
  0x08, 0x04, 0xf6, 0x08, 0x0f, 0x09, 0x03, 0xfa, 0x14, 0x08, 0x0c, 0x03,
  0xff, 0xf5, 0x06, 0xff, 0x02, 0x0d, 0x0b, 0xef, 0xef, 0x03, 0x04, 0xf5,
  0x18, 0xf1, 0xfe, 0x03, 0x03, 0xfe, 0xee, 0x01, 0xf7, 0xf9, 0xfb, 0x01,
  0xf9, 0x00, 0x0d, 0xf9, 0x07, 0x09, 0xf5, 0x06, 0x04, 0xfa, 0xfe, 0x0c,
  0x02, 0x05, 0xf9, 0x03, 0x05, 0x0b, 0x0e, 0xf3, 0x15, 0x0c, 0xfd, 0x09,
  0x0e, 0xe8, 0x01, 0xfc, 0x08, 0x08, 0xfb, 0xfb, 0xfd, 0xf8, 0x07, 0xf9,
  0x19, 0xf6, 0x07, 0x06, 0x07, 0xf6, 0xef, 0x01, 0xf9, 0x02, 0x01, 0x03,
  0x01, 0xeb, 0x09, 0xf8, 0x07, 0x08, 0xfa, 0xf8, 0xfe, 0x00, 0x01, 0x07,
  0x02, 0x00, 0xf9, 0x0a, 0x0f, 0x0b, 0x10, 0xf5, 0x04, 0x00, 0xf9, 0xfb,
  0x08, 0xee, 0x06, 0x0c, 0x01, 0x05, 0x00, 0xf4, 0xf9, 0x07, 0x05, 0x06,
  0x28, 0xfc, 0x00, 0xf4, 0xfc, 0xf4, 0xee, 0x03, 0xf9, 0xfd, 0xfd, 0xfc,
  0x02, 0xf8, 0xfd, 0xf7, 0xfb, 0x03, 0xfc, 0xf7, 0xfe, 0xff, 0xfe, 0x07,
  0x06, 0x01, 0xfc, 0x03, 0x02, 0x11, 0x08, 0x06, 0x07, 0xfa, 0x09, 0xfb,
  0x0d, 0xf2, 0x02, 0xf9, 0x01, 0x0c, 0x05, 0x03, 0xf4, 0x01, 0x05, 0xfd,
  0x1e, 0xf1, 0x0d, 0xf3, 0x05, 0x09, 0xf9, 0x0f, 0x07, 0xff, 0xf8, 0xf7,
  0xf3, 0xf6, 0xfe, 0xfb, 0x08, 0xfe, 0x03, 0x02, 0xfe, 0x06, 0xf5, 0xfa,
  0x07, 0x05, 0x0b, 0xfd, 0xfd, 0x0c, 0xfd, 0xfb, 0x03, 0xf9, 0x0b, 0x05,
  0xfb, 0xf3, 0xfe, 0xf9, 0xfc, 0x07, 0x08, 0xf8, 0xf2, 0x03, 0x0d, 0x00,
  0x10, 0xfb, 0xfe, 0x06, 0x02, 0xfc, 0xed, 0x11, 0x02, 0xfd, 0x05, 0xfd,
  0xf9, 0xfb, 0xfd, 0x09, 0x05, 0x04, 0xf5, 0x06, 0x07, 0xff, 0xfe, 0x08,
  0x05, 0xfc, 0x0a, 0x02, 0xff, 0x0b, 0x08, 0xf9, 0x07, 0xfc, 0x01, 0x04,
  0xfe, 0xf7, 0x00, 0xfd, 0x09, 0x09, 0x00, 0xf9, 0x00, 0xff, 0x03, 0xfa,
  0x06, 0x02, 0x05, 0x07, 0xfb, 0xff, 0xf7, 0x01, 0x03, 0xfd, 0x06, 0xf7,
  0x09, 0xfd, 0x0c, 0xfb, 0xfe, 0x06, 0xff, 0x02, 0x09, 0xf6, 0xfe, 0x00,
  0x02, 0xf5, 0x05, 0x06, 0x00, 0x08, 0x0e, 0x06, 0x0e, 0xf6, 0x03, 0x08,
  0x00, 0xf2, 0x05, 0x04, 0x0a, 0x09, 0xfe, 0x03, 0xfd, 0xfb, 0xfd, 0x03,
  0x0d, 0x00, 0x03, 0xf4, 0xfc, 0xf5, 0xfb, 0xff, 0x03, 0xf9, 0x01, 0xf4,
  0xf8, 0xfb, 0x08, 0xfe, 0xfc, 0x0a, 0xf7, 0xf4, 0x0f, 0x00, 0xff, 0x01,
  0x05, 0xfe, 0xfc, 0xff, 0xfa, 0x0a, 0x01, 0xf6, 0x06, 0xf9, 0xff, 0x03,
  0x0e, 0xe9, 0x0e, 0xfa, 0x00, 0x02, 0x02, 0x05, 0xfe, 0xf8, 0x16, 0x06,
  0x0a, 0xfe, 0x0e, 0x05, 0xfc, 0xec, 0xed, 0x0c, 0xf8, 0x00, 0x02, 0xf2,
  0xfd, 0xf8, 0xfc, 0xff, 0xff, 0xfd, 0xf5, 0xf8, 0xfb, 0x02, 0xf8, 0x00,
  0x04, 0xfd, 0x00, 0x09, 0x02, 0xfd, 0x0a, 0xfb, 0x08, 0xfd, 0xf9, 0xfd,
  0x08, 0xf7, 0x0d, 0x04, 0xf7, 0x06, 0x0a, 0xfc, 0xf4, 0xf5, 0x00, 0x01,
  0x1a, 0xf8, 0xf8, 0x01, 0x05, 0xed, 0xea, 0xfb, 0x05, 0x09, 0xfe, 0xf7,
  0x08, 0xfe, 0x0c, 0xf9, 0x07, 0x0c, 0x00, 0xfe, 0x04, 0xf4, 0x00, 0x08,
  0xf7, 0xfb, 0x07, 0x04, 0x0a, 0x07, 0x04, 0xfb, 0x07, 0xfe, 0x02, 0x07,
  0x0f, 0xf5, 0xfe, 0xf5, 0xf7, 0x02, 0x10, 0xfa, 0xf5, 0x07, 0x12, 0xf5,
  0x01, 0xfc, 0x07, 0xfa, 0xf6, 0xf4, 0xfc, 0x0b, 0x06, 0xff, 0xfa, 0xf2,
  0xfc, 0xef, 0x00, 0x07, 0x03, 0x0a, 0xf4, 0x05, 0x13, 0xf7, 0xf7, 0xfd,
  0x08, 0xf6, 0xfe, 0x0a, 0xfe, 0x09, 0x0e, 0xf6, 0x06, 0xfd, 0x0c, 0xfb,
  0xff, 0xe8, 0x05, 0xff, 0x06, 0x0f, 0x08, 0x04, 0xfe, 0x0a, 0x03, 0x06,
  0x00, 0xf4, 0x0d, 0xf8, 0x03, 0x00, 0xf4, 0x02, 0xf4, 0x03, 0x07, 0xfe,
  0x07, 0xf4, 0xfe, 0xfc, 0xfa, 0x0b, 0xf0, 0xfc, 0x03, 0x02, 0xf9, 0xfb,
  0x02, 0x03, 0xfe, 0x01, 0xfa, 0xfe, 0x06, 0x05, 0x12, 0xfb, 0x08, 0x06,
  0x07, 0xec, 0x09, 0xfc, 0x03, 0xff, 0x0a, 0x08, 0xf9, 0x01, 0x08, 0x04,
  0x06, 0xfc, 0x09, 0x04, 0x08, 0xf5, 0xf9, 0x02, 0x00, 0x06, 0x09, 0xfd,
  0xfa, 0xfe, 0xfb, 0xf9, 0x0d, 0x0c, 0xfc, 0xff, 0xff, 0xfc, 0x07, 0xfd,
  0xf7, 0xfd, 0xfc, 0xf8, 0x06, 0x04, 0x0e, 0xfe, 0x0c, 0xfc, 0x02, 0xfb,
  0xfe, 0xfc, 0xfe, 0x05, 0xfb, 0x15, 0x0d, 0xf3, 0xf5, 0xfa, 0x04, 0x08,
  0xfa, 0xfb, 0x02, 0x06, 0xfa, 0xfd, 0xf6, 0x0b, 0xf7, 0x07, 0x07, 0x00,
  0x0c, 0x03, 0x01, 0x00, 0x04, 0x09, 0xf6, 0x08, 0x0f, 0xfa, 0xff, 0x08,
  0x07, 0x0a, 0xfa, 0x02, 0x08, 0xfc, 0x02, 0xf7, 0x11, 0x06, 0x01, 0x05,
  0xfe, 0xec, 0xfe, 0xfc, 0xf9, 0x04, 0x08, 0xfa, 0x04, 0x01, 0x07, 0xf8,
  0x16, 0x0a, 0x0e, 0xfa, 0xfb, 0xf3, 0xf6, 0x04, 0xfb, 0x08, 0x09, 0xfb,
  0xfd, 0xfc, 0x0a, 0x08, 0xfe, 0x0a, 0xfe, 0xf9, 0xf6, 0xf6, 0x07, 0x01,
  0xfe, 0x06, 0xf5, 0xfc, 0xff, 0xfd, 0x10, 0x00, 0x0a, 0x03, 0xfd, 0xfa,
  0x05, 0xec, 0x02, 0xfd, 0x01, 0x11, 0x0a, 0xf9, 0xf7, 0xf6, 0x0b, 0xfa,
  0x1c, 0xf7, 0x08, 0xf6, 0xfd, 0xfe, 0xf3, 0x06, 0x04, 0x02, 0x00, 0xf6,
  0xf6, 0xf9, 0x08, 0xff, 0x02, 0x03, 0xfd, 0xf8, 0x07, 0x09, 0xff, 0x07,
  0x03, 0x01, 0xf7, 0x04, 0xfc, 0xfa, 0x07, 0xf5, 0x07, 0xfd, 0x01, 0x02,
  0x06, 0xe7, 0x06, 0xfd, 0xf8, 0x02, 0x05, 0xfa, 0x00, 0xfd, 0x0a, 0x01,
  0x00, 0x0a, 0xfe, 0xf4, 0x01, 0x02, 0xf6, 0xfd, 0xf5, 0xf8, 0x04, 0x01,
  0x01, 0xec, 0x0a, 0x07, 0x09, 0xfa, 0xff, 0xfc, 0xfa, 0xfd, 0x00, 0x0a,
  0xf6, 0xfa, 0x0a, 0x06, 0x02, 0x02, 0x01, 0xfe, 0x0d, 0x05, 0x00, 0x00,
  0x06, 0xf9, 0x09, 0xff, 0x0c, 0x0c, 0x04, 0xfd, 0x07, 0xf5, 0x09, 0xfe,
  0x09, 0xfb, 0x03, 0xf8, 0xfe, 0xf6, 0xf1, 0x0b, 0xf4, 0xf8, 0xfb, 0x05,
  0xfa, 0xf8, 0xfe, 0xfc, 0x00, 0xfe, 0x08, 0xff, 0xf3, 0x06, 0x05, 0xff,
  0x07, 0xff, 0x08, 0x0b, 0x00, 0x05, 0x08, 0x01, 0x10, 0x00, 0x03, 0x05,
  0x0e, 0xec, 0x04, 0xfd, 0xf9, 0x00, 0x0b, 0xfa, 0xff, 0xfd, 0x17, 0xfd,
  0x19, 0xf9, 0x05, 0xf5, 0x03, 0xfe, 0xfb, 0x0e, 0x07, 0x04, 0x09, 0xfe,
  0xf6, 0xf7, 0xfe, 0x01, 0x04, 0x0f, 0x09, 0xfa, 0xfc, 0x08, 0x0a, 0x06,
  0xfd, 0x09, 0xf4, 0xfe, 0xfd, 0xfe, 0x0b, 0x0a, 0x08, 0xfb, 0x05, 0xfe,
  0x01, 0xec, 0xfd, 0xff, 0xf4, 0xfd, 0x06, 0xf7, 0x02, 0xfa, 0x12, 0x00,
  0x1e, 0x07, 0x07, 0x02, 0x02, 0x05, 0xff, 0x08, 0xfb, 0x00, 0xf6, 0xfd,
  0xfe, 0xf3, 0xfe, 0x0f, 0x0a, 0x06, 0xfb, 0x04, 0xf7, 0xf9, 0x07, 0x0b,
  0x07, 0x08, 0x05, 0xfd, 0xf9, 0x00, 0x0b, 0xfd, 0x05, 0x08, 0x02, 0x03,
  0x07, 0xff, 0xff, 0xfa, 0xf7, 0x09, 0x0f, 0x02, 0xfb, 0xf3, 0xfb, 0x02,
  0x08, 0xfd, 0x08, 0xf0, 0xf7, 0xf0, 0xf9, 0x0b, 0x07, 0xff, 0xf7, 0x02,
  0xf6, 0x03, 0xfb, 0x10, 0x05, 0xfc, 0xfb, 0x01, 0x0d, 0x00, 0xf6, 0xff,
  0x01, 0xfb, 0xfa, 0x0b, 0x07, 0xfd, 0xff, 0x01, 0x0e, 0xff, 0x0c, 0xfc,
  0x05, 0x03, 0xfb, 0xf7, 0xff, 0x00, 0x05, 0x01, 0xf9, 0xfd, 0x07, 0x02,
  0xf7, 0x00, 0xfb, 0x02, 0x01, 0xf9, 0x00, 0x07, 0xf5, 0x00, 0xf9, 0xf4,
  0xfc, 0x04, 0xfb, 0x04, 0x0a, 0x0b, 0xf6, 0x03, 0x0b, 0xf4, 0xf4, 0x0a,
  0xfe, 0xfb, 0x06, 0x06, 0x09, 0x01, 0x10, 0x01, 0x00, 0x02, 0x04, 0xfd,
  0x01, 0xf0, 0x01, 0xfe, 0xf9, 0x02, 0x0a, 0xf1, 0x02, 0xf2, 0x05, 0xfc,
  0x04, 0xfd, 0x0e, 0xf7, 0x06, 0xfd, 0xf3, 0x02, 0xfa, 0x0b, 0xfd, 0x02,
  0xf8, 0x01, 0x09, 0xfe, 0xfd, 0x05, 0xf6, 0x04, 0x02, 0x06, 0x03, 0x0c,
  0xff, 0xfb, 0xf5, 0xff, 0xfa, 0xfe, 0x04, 0x07, 0x06, 0x0a, 0x11, 0xf9,
  0x04, 0xfe, 0xfd, 0x00, 0xfb, 0x08, 0x05, 0x00, 0x06, 0xf8, 0x01, 0xfb,
  0xff, 0xfd, 0x03, 0xfe, 0x01, 0x05, 0xf8, 0x03, 0x05, 0xfd, 0x02, 0xf9,
  0xfa, 0xfa, 0xfd, 0x02, 0x09, 0x05, 0xfb, 0xfe, 0x07, 0x05, 0xfa, 0xff,
  0x00, 0xfe, 0xf7, 0xf8, 0x08, 0x07, 0x00, 0x05, 0x0c, 0x09, 0x0e, 0xff,
  0x08, 0xfd, 0x03, 0xf8, 0xff, 0x0d, 0xfd, 0x04, 0x02, 0xfd, 0x04, 0x02,
  0x1f, 0x0b, 0x0a, 0xfe, 0x09, 0xf9, 0xf1, 0x01, 0x00, 0xf9, 0x00, 0xf8,
  0xfa, 0xf4, 0x09, 0x06, 0x04, 0x01, 0xfa, 0x04, 0x12, 0x00, 0xf7, 0x06,
  0x00, 0xfe, 0xf4, 0x00, 0x01, 0x03, 0x09, 0x06, 0x0a, 0x08, 0x00, 0xfa,
  0x0a, 0xf5, 0x04, 0xfb, 0x03, 0xfe, 0x0d, 0x06, 0x0c, 0xf2, 0xf8, 0x0b,
  0x13, 0xff, 0x08, 0xf7, 0x0e, 0xf9, 0x05, 0xff, 0x01, 0x01, 0x04, 0x01,
  0xf8, 0xf1, 0x00, 0x11, 0x08, 0xfd, 0xf6, 0x07, 0xff, 0xf6, 0x0a, 0x09,
  0x00, 0x0a, 0x01, 0xfb, 0xfe, 0x0d, 0x02, 0xfa, 0x0a, 0xf7, 0x0c, 0xf7,
  0xff, 0xef, 0xfe, 0x02, 0x05, 0x0b, 0xfb, 0xfa, 0xfe, 0xfb, 0x0b, 0x02,
  0xf6, 0x04, 0xfc, 0xf8, 0x02, 0xf9, 0x03, 0x01, 0xfb, 0xff, 0x06, 0x04,
  0x06, 0xfd, 0x04, 0x0d, 0xff, 0x0b, 0xf8, 0xfd, 0x08, 0xfb, 0x03, 0xfa,
  0x09, 0x01, 0xf7, 0x01, 0x09, 0x0b, 0x06, 0x02, 0x03, 0xfd, 0x01, 0xfa,
  0x0f, 0xf9, 0x02, 0x06, 0x00, 0xfe, 0x08, 0x03, 0x07, 0xed, 0x14, 0x08,
  0xfd, 0x06, 0x09, 0xf0, 0xfc, 0x04, 0x02, 0x0b, 0xfb, 0x05, 0x00, 0x02,
  0xf4, 0x06, 0x0c, 0xfe, 0xfc, 0x01, 0xfe, 0xf8, 0x03, 0x03, 0x02, 0x03,
  0x00, 0xf8, 0x03, 0x0b, 0xfc, 0xff, 0x06, 0xfb, 0x04, 0xf9, 0x0c, 0xff,
  0x0d, 0xff, 0x0a, 0x06, 0xf8, 0x05, 0x05, 0x06, 0x07, 0x05, 0x03, 0xfd,
  0x12, 0x07, 0xf7, 0x00, 0xfd, 0x00, 0xf7, 0x08, 0xfe, 0x00, 0xfb, 0xfc,
  0xfa, 0xf9, 0xfd, 0x10, 0xfe, 0x0b, 0xfa, 0x00, 0x00, 0x07, 0x06, 0xff,
  0x0e, 0xfd, 0xff, 0x01, 0xff, 0x00, 0x0a, 0xf8, 0x0d, 0xfc, 0x0e, 0x08,
  0x00, 0xf4, 0xff, 0x08, 0xfb, 0x05, 0xfe, 0xfe, 0x00, 0xf4, 0x06, 0x06,
  0x1c, 0x07, 0xfa, 0x00, 0x02, 0x03, 0xf9, 0x01, 0x05, 0x07, 0xff, 0xfd,
  0x02, 0xf7, 0xfa, 0x11, 0xfc, 0x07, 0xfb, 0x02, 0x05, 0xfe, 0x03, 0x02,
  0x07, 0x05, 0x05, 0x03, 0xff, 0x0c, 0x07, 0xff, 0x0a, 0x06, 0x08, 0xf9,
  0x09, 0xf3, 0x07, 0x02, 0x05, 0x13, 0x0a, 0xf6, 0xfd, 0xf8, 0xfd, 0x08,
  0x11, 0xfa, 0x09, 0xfb, 0xfd, 0xfc, 0x02, 0x04, 0xfa, 0x02, 0xf2, 0xf3,
  0xfb, 0x06, 0x03, 0x04, 0xfd, 0x07, 0x08, 0xfe, 0x10, 0x06, 0xfa, 0x0a,
  0x01, 0x04, 0xfc, 0xfc, 0x0b, 0x0a, 0x0f, 0x05, 0x04, 0x00, 0xfa, 0xf5,
  0x0b, 0xed, 0x09, 0x00, 0xfa, 0x0c, 0x08, 0xfc, 0x05, 0xfb, 0xfe, 0x06,
  0xfa, 0x01, 0xfe, 0xf9, 0xfe, 0xf9, 0xf5, 0x06, 0x01, 0xf2, 0xf3, 0x06,
  0xfc, 0x00, 0x00, 0xfc, 0x06, 0xfb, 0x01, 0x05, 0x00, 0xf8, 0xf5, 0x0c,
  0x00, 0xf8, 0xf3, 0x0b, 0xf9, 0xff, 0x0e, 0x03, 0x07, 0xf5, 0x00, 0xfb,
  0x06, 0xfd, 0xf7, 0x03, 0xf5, 0x02, 0xff, 0xf9, 0xfe, 0xf0, 0x01, 0x08,
  0x08, 0x07, 0x0a, 0xf4, 0x05, 0xff, 0xf8, 0xfb, 0xfd, 0xf5, 0x02, 0xf5,
  0xfc, 0x0e, 0x0d, 0x00, 0x05, 0xfd, 0xf9, 0x06, 0xfa, 0xfc, 0xf6, 0x0a,
  0x06, 0xf9, 0xee, 0x00, 0x07, 0x07, 0x0f, 0x05, 0x09, 0x05, 0xfe, 0x00,
  0x06, 0xea, 0x08, 0xf8, 0xf6, 0x04, 0x0b, 0xfe, 0xf8, 0xf1, 0x0a, 0xff,
  0x0f, 0x02, 0xf8, 0xfc, 0xfb, 0xff, 0x00, 0xfa, 0xf8, 0xf4, 0xfc, 0xfd,
  0xf3, 0x0f, 0x08, 0x0b, 0x0c, 0x03, 0xf8, 0x04, 0x02, 0xf9, 0x06, 0x06,
  0x0b, 0x00, 0xfe, 0x03, 0xf6, 0x04, 0x09, 0xfe, 0x08, 0x03, 0x01, 0xfc,
  0xfb, 0xf6, 0x07, 0x05, 0xf3, 0x03, 0x0a, 0xf1, 0xf8, 0xfe, 0x0b, 0x06,
  0x03, 0x03, 0xfd, 0xf3, 0x02, 0xf5, 0xfa, 0xfc, 0xfc, 0xee, 0xf8, 0xf7,
  0xfc, 0xfa, 0xfe, 0x00, 0x05, 0x09, 0xfc, 0x07, 0x09, 0xfa, 0xf7, 0xfa,
  0xff, 0x09, 0x00, 0x01, 0x0d, 0x08, 0x03, 0x04, 0x04, 0xfb, 0x00, 0xff,
  0xfd, 0xf3, 0x02, 0x06, 0xef, 0x03, 0x03, 0xfd, 0xf7, 0xfb, 0x00, 0x01,
  0x0e, 0x05, 0x08, 0xff, 0xfd, 0xf0, 0xf9, 0xfd, 0xf8, 0x03, 0xff, 0xf5,
  0x01, 0x09, 0x0b, 0x08, 0x0c, 0x0c, 0x00, 0x05, 0x0b, 0xf6, 0xfe, 0x0b,
  0x00, 0x01, 0xee, 0xfa, 0x04, 0xff, 0x06, 0xf8, 0x10, 0x00, 0xfc, 0xfe,
  0xfe, 0xef, 0x0a, 0xfe, 0xee, 0x0a, 0x0c, 0xf4, 0xfc, 0xf8, 0x0a, 0x01,
  0x21, 0x09, 0x08, 0xf1, 0xf8, 0xfb, 0xf1, 0xff, 0xf5, 0xf7, 0xf2, 0xfe,
  0x01, 0x04, 0x0a, 0x0c, 0x0b, 0x07, 0xf4, 0xff, 0x02, 0x05, 0x05, 0xf8,
  0x0f, 0xff, 0xea, 0xfa, 0x01, 0xfe, 0x0a, 0xff, 0xfe, 0xf5, 0x04, 0x07,
  0x08, 0xf8, 0xf7, 0x08, 0xfc, 0x03, 0xfd, 0xfa, 0xfc, 0xfd, 0x03, 0x04,
  0x0b, 0x06, 0x05, 0xf9, 0x06, 0xf8, 0x03, 0x0a, 0xfc, 0xfa, 0xf6, 0xf2,
  0xf7, 0xfd, 0xff, 0x12, 0x0d, 0x0c, 0x02, 0xfb, 0x08, 0xf5, 0xfa, 0x0d,
  0x05, 0x02, 0xf3, 0x0a, 0xf9, 0x01, 0x03, 0xf8, 0x04, 0xf9, 0x09, 0x01,
  0x04, 0xe7, 0xfe, 0x05, 0xf9, 0xfd, 0x10, 0xfa, 0xfe, 0xf3, 0x07, 0xff,
  0xfe, 0x02, 0x01, 0xf3, 0x07, 0xf9, 0xf5, 0x10, 0x06, 0xfc, 0xfb, 0xfe,
  0xf9, 0x0f, 0x0c, 0x0c, 0x0f, 0xfd, 0xfa, 0x05, 0x04, 0xf6, 0x03, 0xff,
  0x07, 0x0c, 0xf6, 0x07, 0xff, 0x0f, 0x10, 0x04, 0x01, 0x00, 0xfc, 0xff,
  0xff, 0xe8, 0x08, 0x08, 0xf5, 0x08, 0x01, 0xf2, 0xf7, 0xf6, 0x0d, 0xf2,
  0x15, 0xfc, 0x02, 0xfe, 0xfc, 0xf3, 0xf1, 0x05, 0xf5, 0xf6, 0x01, 0xf7,
  0xf5, 0x04, 0xfa, 0x00, 0x0e, 0x0f, 0xf9, 0xfd, 0x09, 0x07, 0xfe, 0x04,
  0x0f, 0xfe, 0xf9, 0x03, 0x02, 0x0b, 0x13, 0xfd, 0x0a, 0xff, 0x01, 0x04,
  0x04, 0xea, 0xfd, 0xff, 0xf6, 0x0b, 0x02, 0xee, 0xf8, 0xf6, 0x04, 0x01,
  0x07, 0xf9, 0x0c, 0xfc, 0xff, 0xfb, 0xff, 0x0b, 0x07, 0xf4, 0xf5, 0xf8,
  0xf7, 0x06, 0x01, 0x0e, 0xfc, 0xff, 0x09, 0xf7, 0x08, 0xfc, 0xfe, 0x07,
  0x0b, 0xfa, 0x00, 0x04, 0x01, 0x0b, 0x0c, 0x02, 0x0f, 0x0b, 0x0f, 0xf8,
  0x05, 0xde, 0xfb, 0x0a, 0xfb, 0xff, 0x0d, 0xfe, 0xf6, 0xfa, 0x06, 0x00,
  0x1f, 0xf9, 0x05, 0x03, 0xfe, 0xf2, 0xf6, 0x0f, 0x0a, 0xf1, 0xf2, 0xfa,
  0xff, 0x01, 0x0a, 0x0d, 0x0c, 0x0a, 0x05, 0xf9, 0xf9, 0x09, 0xfe, 0x06,
  0xfe, 0xf8, 0xfd, 0xfd, 0x07, 0x0f, 0x0f, 0xff, 0x0a, 0xfa, 0x03, 0x01,
  0xfd, 0xec, 0x01, 0x02, 0xed, 0xfc, 0x10, 0xf9, 0x02, 0x07, 0x01, 0xf8,
  0x25, 0x07, 0x0a, 0x02, 0xfe, 0x02, 0xf5, 0x0f, 0x01, 0xf2, 0xff, 0x03,
  0x00, 0x05, 0x07, 0x05, 0x0b, 0x0b, 0xff, 0xf6, 0x03, 0xfa, 0xf7, 0x05,
  0xff, 0x01, 0xf7, 0xfe, 0x05, 0x01, 0x01, 0xf9, 0x12, 0xfe, 0x01, 0xfc,
  0x02, 0xf2, 0x0a, 0x03, 0xec, 0x0c, 0x02, 0xef, 0xfe, 0x03, 0x06, 0xfd,
  0x1b, 0x08, 0x14, 0xfc, 0xf7, 0x05, 0xf5, 0x02, 0xfe, 0x05, 0x01, 0xfe,
  0xf7, 0x0e, 0x0f, 0xff, 0xfe, 0x01, 0x07, 0xf7, 0x07, 0xf8, 0xf8, 0x07,
  0x07, 0x02, 0xfe, 0x0c, 0x0f, 0x08, 0x07, 0xf7, 0x08, 0x07, 0x07, 0xf8,
  0x02, 0xdd, 0xfe, 0x04, 0xfb, 0x09, 0x00, 0xf3, 0x03, 0x0c, 0x10, 0x00,
  0x00, 0x06, 0x0d, 0x07, 0xf5, 0xf5, 0x01, 0xfe, 0xf6, 0x00, 0x04, 0x06,
  0xf9, 0xff, 0x0c, 0xfe, 0xfe, 0x03, 0x09, 0x07, 0x0a, 0x09, 0xf9, 0x07,
  0x03, 0x02, 0x01, 0x05, 0xfb, 0xff, 0x03, 0xf5, 0x0f, 0xfd, 0x00, 0xf8,
  0x0c, 0xfc, 0xfd, 0x05, 0xfe, 0x07, 0xf9, 0xf2, 0xfe, 0xfe, 0x01, 0x02,
  0x0b, 0xfb, 0xfb, 0x03, 0x02, 0xec, 0xfa, 0xf7, 0xfc, 0xff, 0xf5, 0xf5,
  0x00, 0xff, 0x0c, 0x07, 0x0b, 0xfa, 0x04, 0x0f, 0xf3, 0x0b, 0x05, 0xfd,
  0xeb, 0xfb, 0x0d, 0x04, 0x05, 0xf8, 0xfc, 0x03, 0xfb, 0xf7, 0xf5, 0xfb,
  0xfe, 0xed, 0x12, 0xf7, 0xfc, 0xfa, 0xfd, 0x0a, 0xff, 0xfe, 0xf4, 0x1e,
  0xd3, 0x03, 0xf3, 0x02, 0x03, 0x12, 0x02, 0xf3, 0x04, 0x07, 0x0e, 0x00,
  0x0d, 0xfd, 0x00, 0xfb, 0xf7, 0xf2, 0xf5, 0x10, 0xf7, 0xf9, 0x0c, 0x03,
  0xf1, 0x06, 0x16, 0xfe, 0xef, 0xe9, 0xf6, 0x03, 0x03, 0x07, 0xf9, 0x02,
  0xe9, 0xe4, 0x02, 0x02, 0xff, 0xf9, 0xfa, 0xfa, 0x06, 0x01, 0x04, 0x15,
  0x93, 0x06, 0xe2, 0x0a, 0x02, 0x04, 0x09, 0xf4, 0xfd, 0xf3, 0x06, 0x05,
  0x0f, 0xf2, 0xed, 0x00, 0xf2, 0xf2, 0x04, 0x03, 0xf2, 0x07, 0xfd, 0xfa,
  0xf4, 0x0d, 0x14, 0xff, 0xf2, 0xe8, 0x04, 0x08, 0x08, 0x09, 0xfb, 0x00,
  0xeb, 0xf8, 0x02, 0xf3, 0xff, 0xfb, 0x00, 0x01, 0x05, 0xf8, 0x09, 0x0c,
  0x94, 0x0c, 0xe9, 0x09, 0x0e, 0xfc, 0x02, 0xec, 0x02, 0x06, 0x13, 0x09,
  0x0c, 0xea, 0xf5, 0xf9, 0xf3, 0xf2, 0xfa, 0x13, 0xef, 0x00, 0x00, 0x00,
  0xe7, 0x0a, 0x11, 0xfb, 0xf4, 0xf8, 0xf5, 0x01, 0xff, 0xf6, 0xfe, 0xf9,
  0xe8, 0xe4, 0x02, 0x02, 0x06, 0xfc, 0xff, 0xf8, 0x07, 0xfe, 0x09, 0x08,
  0x90, 0x09, 0xe4, 0xfe, 0x07, 0x03, 0x02, 0xf7, 0x02, 0x01, 0x19, 0xfd,
  0x14, 0xf3, 0xf2, 0x07, 0xf9, 0xf7, 0x05, 0x06, 0xe5, 0x06, 0x0e, 0x0b,
  0xea, 0x0e, 0x16, 0x01, 0x03, 0xfa, 0x05, 0x00, 0x00, 0x0a, 0xfe, 0xfe,
  0xef, 0xf2, 0x0b, 0xff, 0xfe, 0xf9, 0x00, 0xfd, 0xfc, 0x02, 0x00, 0x09,
  0x95, 0x0a, 0xe6, 0xfd, 0x01, 0xfd, 0x0a, 0xf7, 0x01, 0x02, 0x11, 0x07,
  0x02, 0xf4, 0xe7, 0xf6, 0xf7, 0xf3, 0xf8, 0x0e, 0xe4, 0x09, 0x05, 0x03,
  0xf3, 0x0e, 0x06, 0x03, 0x00, 0xf1, 0xff, 0x03, 0x03, 0xf9, 0xf2, 0x0a,
  0xf9, 0x02, 0x06, 0x01, 0x01, 0x02, 0x0a, 0x07, 0x03, 0xfc, 0xfe, 0x0b,
  0xa7, 0x0b, 0xf2, 0x05, 0x02, 0xf4, 0x03, 0xf8, 0x04, 0xf6, 0x08, 0xf8,
  0x08, 0xf1, 0xf1, 0x02, 0xf7, 0xf5, 0xff, 0x06, 0xe9, 0xff, 0x09, 0x04,
  0xe7, 0x06, 0x08, 0xfc, 0xf0, 0xfe, 0xf5, 0xfd, 0xff, 0x08, 0x03, 0x01,
  0xe9, 0xf8, 0xfd, 0xfc, 0x06, 0xfa, 0x0a, 0xf7, 0x03, 0xfb, 0x00, 0x0a,
  0xb0, 0x00, 0xf5, 0xfd, 0x0c, 0xf5, 0x02, 0xf7, 0x0d, 0xf8, 0x15, 0x05,
  0x0d, 0xee, 0xf4, 0x02, 0x01, 0xe9, 0x02, 0x0b, 0xf0, 0xfe, 0x0b, 0xfa,
  0xef, 0x06, 0x09, 0xfc, 0xf7, 0xf2, 0xf6, 0xfc, 0x01, 0x03, 0x01, 0xf9,
  0xf5, 0xed, 0xfb, 0xf4, 0x02, 0xfd, 0xfd, 0xff, 0x00, 0x00, 0x07, 0x07,
  0x9c, 0x03, 0xe8, 0x05, 0x05, 0xf4, 0x0b, 0xf9, 0x05, 0xff, 0x09, 0xfe,
  0x0d, 0xed, 0xf3, 0xf8, 0xf7, 0xed, 0x03, 0x0e, 0xf5, 0x04, 0x0a, 0xfb,
  0xf0, 0x03, 0x11, 0x0a, 0xf7, 0x01, 0xfe, 0x01, 0x00, 0xfb, 0x02, 0x02,
  0xf2, 0xed, 0x08, 0xfc, 0xfd, 0x06, 0x00, 0x01, 0x04, 0x00, 0x06, 0x0b,
  0xa0, 0xfd, 0xf6, 0x0a, 0x0d, 0x02, 0x01, 0xed, 0xff, 0xf3, 0x05, 0xfc,
  0x10, 0xfd, 0xf9, 0x02, 0xed, 0xf0, 0xfb, 0x0d, 0xf9, 0x04, 0x08, 0xff,
  0xf2, 0x06, 0x03, 0xf9, 0x02, 0xff, 0x00, 0xfe, 0x07, 0xfd, 0xf4, 0x08,
  0xf5, 0xd3, 0x04, 0xee, 0x05, 0xfb, 0x00, 0xf3, 0x06, 0x0a, 0xfb, 0x10,
  0xab, 0x03, 0xe4, 0x12, 0x03, 0xff, 0x0a, 0xf2, 0x01, 0x06, 0x11, 0x01,
  0x0c, 0xf3, 0xfb, 0xfb, 0xf6, 0xff, 0x0a, 0x05, 0xe8, 0x05, 0x02, 0xfc,
  0xed, 0x0a, 0x12, 0x06, 0xf7, 0xef, 0xfc, 0x07, 0xfa, 0x05, 0xf6, 0x06,
  0xfe, 0xfb, 0x06, 0xf0, 0xf7, 0x08, 0xfd, 0xf9, 0xfa, 0x05, 0x0f, 0x04,
  0xa8, 0xfb, 0xe8, 0x17, 0x04, 0x07, 0x07, 0x02, 0x0d, 0xfb, 0x04, 0xff,
  0x11, 0xf7, 0xfa, 0x02, 0xf6, 0xfa, 0x0a, 0x03, 0xf0, 0xfa, 0x08, 0x02,
  0xec, 0x04, 0x0c, 0xfd, 0x02, 0xec, 0xfd, 0x05, 0xfe, 0x08, 0xfb, 0xfa,
  0xed, 0x02, 0x08, 0xfc, 0x0a, 0x08, 0x07, 0xfe, 0x08, 0x0c, 0x08, 0x0e,
  0xa5, 0xf8, 0xe0, 0x07, 0xff, 0xfd, 0x0a, 0xf4, 0x08, 0xfb, 0x10, 0x04,
  0x0c, 0xf2, 0xf7, 0xfe, 0xec, 0xf8, 0x05, 0x02, 0xf8, 0x07, 0x11, 0x02,
  0xf1, 0x10, 0x09, 0x02, 0xf7, 0xf8, 0x01, 0x0a, 0xff, 0x02, 0x05, 0x0e,
  0xef, 0xf9, 0x02, 0x04, 0x05, 0xfd, 0xf8, 0xf9, 0xff, 0x09, 0x04, 0x0e,
  0xa2, 0x07, 0xe8, 0xff, 0x04, 0x0f, 0x01, 0xf9, 0x09, 0xf8, 0x10, 0x01,
  0x06, 0xf0, 0xef, 0x01, 0xef, 0xf3, 0x0a, 0x03, 0xf4, 0x04, 0x00, 0x09,
  0xf9, 0xfd, 0x06, 0xfa, 0x02, 0xfa, 0x03, 0x06, 0x08, 0x04, 0x07, 0x00,
  0xef, 0xf1, 0x05, 0xf9, 0x03, 0x00, 0x07, 0x06, 0xf8, 0x0f, 0xfd, 0x10,
  0xb0, 0x01, 0xe1, 0x17, 0x0d, 0x10, 0x07, 0xfb, 0x09, 0xfb, 0x08, 0xfd,
  0x13, 0xfe, 0xee, 0x08, 0xf5, 0xf8, 0xfc, 0x0d, 0xef, 0x05, 0xfe, 0xfc,
  0xf4, 0x02, 0x15, 0x03, 0xfa, 0xf8, 0x04, 0x0a, 0x01, 0x02, 0x01, 0xfc,
  0xfa, 0x0c, 0x0b, 0x00, 0x02, 0x0a, 0x05, 0xfc, 0x09, 0xfb, 0xfd, 0x05,
  0xb8, 0x03, 0xea, 0x0f, 0x10, 0x10, 0x0f, 0x02, 0x07, 0x04, 0x07, 0x0a,
  0x17, 0xfa, 0xeb, 0x05, 0xff, 0xf0, 0x06, 0x09, 0xfd, 0xfe, 0x0f, 0xff,
  0xf6, 0xfc, 0x0f, 0x0c, 0xf5, 0xf2, 0xfe, 0xfc, 0xfb, 0xff, 0x03, 0xfd,
  0xfa, 0x09, 0x0b, 0xfa, 0x09, 0x0a, 0xff, 0x06, 0x07, 0x0e, 0x01, 0x02,
  0xb9, 0xfa, 0xe2, 0x14, 0x0b, 0x03, 0x08, 0xfc, 0x06, 0xfc, 0x01, 0x0b,
  0x0b, 0xf1, 0xf8, 0xfa, 0xf2, 0xf0, 0x0e, 0x02, 0xf7, 0xfc, 0x04, 0xff,
  0xf1, 0x0d, 0x0f, 0x0d, 0xfe, 0xf6, 0xfb, 0x0c, 0xf6, 0x02, 0xf5, 0x00,
  0xf8, 0xee, 0xfe, 0x00, 0x02, 0x04, 0x04, 0xfa, 0xfb, 0x09, 0x0a, 0x05,
  0xae, 0x02, 0xe9, 0x13, 0x08, 0x0c, 0xfe, 0xf5, 0x0e, 0xfa, 0x07, 0x04,
  0x07, 0xf0, 0xf1, 0xf9, 0xfc, 0xf1, 0x0d, 0x0c, 0xf4, 0xf9, 0x08, 0x01,
  0xfc, 0x04, 0x11, 0xfb, 0xfa, 0xec, 0xf4, 0xfb, 0xf9, 0x00, 0x07, 0x05,
  0xf5, 0xf9, 0x03, 0xf3, 0xf4, 0xf8, 0xfe, 0x02, 0xff, 0x0e, 0xfe, 0x02,
  0xa5, 0x04, 0xe3, 0x02, 0x04, 0xfa, 0x0f, 0xf7, 0x05, 0xfe, 0x09, 0xff,
  0x0a, 0xfe, 0xfc, 0x08, 0xee, 0xf1, 0xf9, 0x09, 0xf6, 0x00, 0x01, 0x07,
  0xf2, 0x05, 0x0f, 0x05, 0x05, 0xea, 0xf9, 0xfc, 0xf4, 0x00, 0xf6, 0xfe,
  0xea, 0xf8, 0x0a, 0xf9, 0xfb, 0x00, 0xfa, 0xf7, 0x09, 0x05, 0x08, 0x0e,
  0xa7, 0x07, 0xe3, 0x0c, 0x08, 0x02, 0x04, 0xfa, 0x0f, 0x05, 0x07, 0x04,
  0x05, 0xfb, 0x02, 0x07, 0xee, 0xec, 0xfc, 0xff, 0xf0, 0xfa, 0x06, 0xfa,
  0xf3, 0xfd, 0x10, 0x06, 0xfa, 0xfe, 0xf9, 0x09, 0x02, 0xfe, 0x06, 0x02,
  0xf8, 0x0b, 0xfd, 0x00, 0x05, 0x06, 0x02, 0x04, 0xf7, 0x09, 0x03, 0x07,
  0xb2, 0x0b, 0xe0, 0x11, 0x0a, 0xfd, 0x0c, 0x01, 0x12, 0x00, 0x10, 0x00,
  0x0f, 0x03, 0xf4, 0x07, 0xf3, 0xf4, 0x03, 0xfc, 0xec, 0x07, 0x0e, 0x0b,
  0xf6, 0xfe, 0xff, 0x0e, 0xf4, 0xf3, 0xfa, 0x0e, 0xef, 0x02, 0xfe, 0x01,
  0xf9, 0xff, 0x0a, 0x05, 0xf6, 0x01, 0xf8, 0xfb, 0x00, 0x06, 0x09, 0xfd,
  0xb4, 0x01, 0xdf, 0x04, 0x00, 0xf9, 0x04, 0x00, 0x07, 0xf8, 0x00, 0x01,
  0x08, 0xf9, 0xef, 0x02, 0xfa, 0xee, 0x04, 0x09, 0xf2, 0xf9, 0x0a, 0x0d,
  0x02, 0xfb, 0x01, 0x06, 0xfb, 0xfe, 0x00, 0x06, 0xfc, 0x07, 0xff, 0x00,
  0xf0, 0xf4, 0x04, 0xf3, 0x03, 0xfa, 0x00, 0x07, 0x08, 0x06, 0x0d, 0x00,
  0xa0, 0xfb, 0xe6, 0x09, 0x0f, 0x00, 0x08, 0x02, 0x0d, 0xf5, 0x0d, 0x09,
  0x0b, 0xf6, 0xf2, 0x05, 0xee, 0xfd, 0xfc, 0xfe, 0xed, 0xf4, 0xfc, 0x08,
  0xf4, 0xfd, 0x0b, 0x0d, 0x04, 0xee, 0xf4, 0xfa, 0xfc, 0xfd, 0xfc, 0x02,
  0xee, 0xef, 0x0c, 0xf4, 0xfb, 0xf5, 0xff, 0xfc, 0x05, 0x01, 0x0d, 0x03,
  0x9a, 0x08, 0xf1, 0x14, 0x0d, 0xf8, 0x0a, 0xf7, 0x0e, 0xf5, 0x0c, 0xf8,
  0x05, 0xf4, 0xf7, 0xf7, 0xed, 0xf5, 0x06, 0xfd, 0xfa, 0x08, 0x10, 0x00,
  0xf7, 0x03, 0x0e, 0x02, 0xff, 0xf9, 0xfd, 0xfc, 0xf9, 0xfc, 0x01, 0x0f,
  0xf3, 0xe6, 0x0b, 0xfe, 0xf4, 0x03, 0x0a, 0xf5, 0xfb, 0x01, 0x0b, 0x07,
  0xb9, 0x04, 0xf2, 0x1e, 0x0d, 0xfe, 0x0b, 0xf2, 0x0f, 0xf7, 0x05, 0x07,
  0x01, 0xf0, 0xfc, 0x08, 0xea, 0xf2, 0xfb, 0x0b, 0xed, 0xfd, 0x0f, 0xff,
  0xf6, 0x07, 0x10, 0x08, 0x00, 0xf5, 0x08, 0x04, 0xf1, 0xfb, 0x07, 0xfd,
  0xec, 0xdb, 0x07, 0xfa, 0x07, 0x0b, 0x0c, 0xfb, 0xfc, 0xff, 0x0c, 0x01,
  0xb3, 0x03, 0xf0, 0x1b, 0x04, 0x05, 0x0e, 0xf6, 0x0c, 0x01, 0x08, 0xfd,
  0xfb, 0xf3, 0xfe, 0x06, 0xe3, 0xed, 0x0e, 0x07, 0xe8, 0xf6, 0x0a, 0x04,
  0xfa, 0xfe, 0x08, 0xfe, 0x02, 0xf6, 0x06, 0x01, 0xf2, 0x05, 0x00, 0xfe,
  0xf2, 0xeb, 0x0b, 0xfe, 0x03, 0x03, 0x02, 0xf5, 0x05, 0x08, 0x00, 0xf7,
  0xb2, 0x00, 0xdd, 0xff, 0x0a, 0xfe, 0x12, 0xf3, 0xfd, 0xf3, 0x06, 0x08,
  0x05, 0xef, 0xfc, 0x02, 0xe8, 0xeb, 0x12, 0x02, 0xea, 0xf2, 0x08, 0x05,
  0xff, 0x04, 0x0e, 0x02, 0x06, 0xef, 0x06, 0xfe, 0xf2, 0xfd, 0x02, 0xf8,
  0xf0, 0xe9, 0xff, 0xf9, 0xfe, 0xf7, 0x01, 0xf4, 0x0d, 0x02, 0x06, 0xff,
  0xaa, 0x08, 0xed, 0x13, 0x04, 0x06, 0x01, 0xf6, 0x01, 0xf3, 0x00, 0x03,
  0x08, 0xfe, 0xf4, 0x05, 0xe9, 0xf1, 0x11, 0xf9, 0xea, 0xfa, 0x06, 0xff,
  0xfb, 0x0b, 0x03, 0xff, 0xfe, 0xe7, 0x04, 0x02, 0xf6, 0x06, 0x06, 0x05,
  0xf4, 0xe5, 0x04, 0xfc, 0x05, 0x04, 0x02, 0xf8, 0x0a, 0xfe, 0x06, 0x00,
  0xb7, 0x03, 0xf6, 0x0f, 0x11, 0x0b, 0x04, 0xf9, 0x0a, 0xf7, 0x14, 0x07,
  0xfd, 0xef, 0xf6, 0xfd, 0xf0, 0xfc, 0x03, 0xff, 0xea, 0x08, 0x0f, 0x04,
  0x01, 0x08, 0x17, 0x08, 0x01, 0xf1, 0x03, 0x0a, 0xf2, 0x0a, 0xf5, 0xfd,
  0xed, 0xe8, 0x11, 0x00, 0xfa, 0x01, 0x02, 0x00, 0x00, 0x07, 0x09, 0xfc,
  0xb4, 0x04, 0xea, 0x0e, 0x0d, 0x00, 0x07, 0xf4, 0x02, 0xf4, 0x06, 0x04,
  0xfe, 0xfb, 0xf2, 0xf7, 0xf0, 0x00, 0x0c, 0x06, 0xfa, 0xfa, 0xfd, 0x10,
  0xf0, 0xfe, 0x0d, 0x0e, 0x02, 0xf9, 0x03, 0x01, 0xfe, 0x05, 0x02, 0xfb,
  0xf2, 0x00, 0x11, 0xfc, 0x01, 0x05, 0x07, 0xff, 0xfe, 0x00, 0x00, 0x02,
  0xb7, 0x00, 0xf6, 0x11, 0x08, 0x04, 0xfd, 0xf3, 0x0e, 0x01, 0x04, 0x04,
  0x05, 0xf5, 0xf5, 0xf5, 0xf6, 0xf1, 0x04, 0xfa, 0xf2, 0xf6, 0xff, 0x0d,
  0xf5, 0x0f, 0x0a, 0x09, 0x04, 0xf4, 0x01, 0x00, 0xfc, 0x07, 0xfb, 0xfe,
  0xf7, 0x0b, 0x00, 0xfc, 0x06, 0xfb, 0x01, 0xfe, 0x0b, 0x01, 0x08, 0x10,
  0xb2, 0x02, 0xee, 0x1a, 0x07, 0x0a, 0x00, 0x03, 0x05, 0xfa, 0x12, 0x01,
  0x0b, 0xed, 0xfc, 0xfb, 0x03, 0xf2, 0x10, 0x0b, 0xf2, 0x0b, 0xfb, 0x03,
  0xff, 0x09, 0x0a, 0xfc, 0xf9, 0xf3, 0x03, 0x01, 0xf4, 0x09, 0xfe, 0x05,
  0xe9, 0xf4, 0x08, 0xfd, 0x07, 0xfa, 0x0d, 0x01, 0x06, 0x03, 0x02, 0x06,
  0xa5, 0xfe, 0xff, 0x0f, 0x0a, 0x10, 0xfd, 0x03, 0xfe, 0xfc, 0x17, 0x07,
  0x01, 0xf7, 0xfb, 0x09, 0xee, 0xfa, 0x08, 0x09, 0xef, 0xfc, 0x04, 0x0d,
  0xfb, 0x0c, 0x11, 0x04, 0xf8, 0xf2, 0x06, 0x01, 0xf5, 0x09, 0xfd, 0x08,
  0xfb, 0xe0, 0x05, 0xf5, 0x02, 0xff, 0x04, 0xf1, 0xfa, 0x07, 0x02, 0x07,
  0xa0, 0x02, 0xee, 0x0c, 0x05, 0x0c, 0x09, 0x06, 0x0f, 0xfd, 0x01, 0x08,
  0x02, 0xfc, 0xfd, 0xf8, 0xec, 0x00, 0x03, 0x0e, 0xf9, 0x04, 0x0b, 0x06,
  0xf1, 0xfd, 0x07, 0x02, 0x0a, 0xf0, 0x06, 0x0b, 0xf7, 0xfc, 0xf9, 0xfd,
  0xe7, 0xf1, 0x0f, 0xf4, 0xfb, 0xfe, 0xfd, 0xf7, 0xfb, 0x0d, 0x02, 0xfd,
  0xb2, 0x0a, 0xeb, 0x1b, 0x01, 0x0b, 0x04, 0xf4, 0xff, 0x06, 0x14, 0xfb,
  0x0b, 0xf7, 0xf2, 0x09, 0xee, 0x01, 0x03, 0x08, 0xe5, 0xfc, 0x07, 0x10,
  0xff, 0xfe, 0x0d, 0x08, 0x00, 0xeb, 0x0c, 0x08, 0xf6, 0xf8, 0xf9, 0x08,
  0xf9, 0xef, 0x05, 0xf3, 0xf8, 0x07, 0xf9, 0xf7, 0x00, 0x08, 0xff, 0xfe,
  0xad, 0xfc, 0xea, 0x0c, 0x07, 0xf9, 0x00, 0xf1, 0x0d, 0x00, 0x11, 0xff,
  0x19, 0xf3, 0xf5, 0x09, 0xec, 0x03, 0xfa, 0x06, 0xf0, 0x04, 0x02, 0x03,
  0xfd, 0x08, 0x0d, 0x09, 0xfc, 0xf6, 0x0b, 0xff, 0x00, 0x00, 0xf4, 0x0d,
  0xf2, 0xed, 0xfd, 0xf5, 0x02, 0xf7, 0x07, 0x00, 0x0d, 0x01, 0x08, 0x0e,
  0xa1, 0x06, 0xe9, 0x07, 0x0a, 0x03, 0x0e, 0x00, 0x01, 0x03, 0x13, 0x01,
  0x0b, 0xed, 0xf6, 0xff, 0xf6, 0xf0, 0x08, 0x0e, 0xee, 0x09, 0x0f, 0x0f,
  0x00, 0x0c, 0x0d, 0x02, 0xf9, 0xf7, 0x08, 0x04, 0xf6, 0xfa, 0x04, 0xfe,
  0xf8, 0xf5, 0x02, 0xf1, 0x03, 0xf3, 0x09, 0xf7, 0x0c, 0x08, 0xfe, 0x08,
  0xb0, 0xf9, 0xeb, 0x16, 0x04, 0x04, 0x04, 0x03, 0x00, 0xf9, 0x14, 0x08,
  0x01, 0xf6, 0xfc, 0x09, 0xfa, 0xf7, 0xff, 0x11, 0xe6, 0x05, 0x0c, 0x09,
  0xef, 0x04, 0x02, 0xfe, 0x06, 0x00, 0x03, 0x00, 0x03, 0x03, 0x02, 0x07,
  0xf3, 0x03, 0x02, 0xf1, 0xf9, 0xfe, 0x04, 0xf7, 0x09, 0x0b, 0x01, 0x09,
  0xa0, 0xfa, 0xef, 0x10, 0x0d, 0xfd, 0x07, 0x05, 0x0a, 0xfe, 0x0f, 0x06,
  0x0c, 0xf9, 0xf5, 0x02, 0xf6, 0xfe, 0x08, 0xff, 0xed, 0x02, 0x08, 0x09,
  0xed, 0x03, 0x0d, 0x02, 0xf6, 0xec, 0x03, 0x01, 0xf7, 0xfc, 0x00, 0x0a,
  0xfb, 0x02, 0x06, 0xfe, 0x06, 0x02, 0x0a, 0xff, 0x00, 0xfd, 0x09, 0x12,
  0xaf, 0x08, 0xeb, 0x15, 0x08, 0x01, 0xfe, 0xf3, 0x01, 0xf8, 0x0b, 0x09,
  0x16, 0xe9, 0xfc, 0x08, 0xfd, 0xf3, 0x07, 0x0d, 0xf5, 0x08, 0xfd, 0x09,
  0xf0, 0xfb, 0x17, 0x0a, 0xfe, 0xec, 0x08, 0x06, 0xf6, 0xfc, 0xfa, 0xfd,
  0xf1, 0xf7, 0x0a, 0xf2, 0x02, 0xf6, 0xfc, 0x03, 0x0b, 0xfc, 0x08, 0x05,
  0xb2, 0x04, 0xee, 0x22, 0x0c, 0xf8, 0xfc, 0xf4, 0x0b, 0xf9, 0x10, 0x02,
  0x0c, 0xeb, 0xf4, 0x02, 0xf7, 0xf6, 0xfe, 0x07, 0xe3, 0x0b, 0x03, 0xfc,
  0xfb, 0xfb, 0x10, 0x0a, 0x02, 0xff, 0x05, 0x00, 0x06, 0x04, 0xfe, 0x06,
  0xee, 0xf6, 0x00, 0xfc, 0xfc, 0xfd, 0xff, 0xf3, 0xfc, 0x02, 0x05, 0x09,
  0xa6, 0xff, 0xed, 0x10, 0x01, 0xf8, 0x0b, 0xee, 0x01, 0xfe, 0x12, 0xfc,
  0x05, 0xf0, 0xfa, 0xf8, 0xf2, 0xf3, 0x0b, 0x0f, 0xe8, 0x03, 0x01, 0x01,
  0xeb, 0x00, 0x03, 0xfc, 0xf5, 0xf4, 0x04, 0x0c, 0xff, 0x03, 0xf9, 0xff,
  0xf3, 0xf3, 0x01, 0xfe, 0xff, 0x03, 0x07, 0xfd, 0xff, 0x01, 0x12, 0x0a,
  0xb2, 0x02, 0xeb, 0x13, 0x08, 0xf7, 0x06, 0xf7, 0x0f, 0xff, 0x0c, 0x00,
  0xfd, 0xf2, 0xfb, 0x07, 0xf3, 0xf1, 0xfa, 0xff, 0xe9, 0xfe, 0x12, 0x08,
  0xf6, 0x0c, 0x0f, 0x02, 0xfe, 0xf8, 0x05, 0x02, 0xfa, 0x00, 0x06, 0x06,
  0xee, 0xe7, 0x04, 0xf5, 0xf9, 0xfc, 0x06, 0x06, 0x02, 0xfb, 0xff, 0x04,
  0xa8, 0x0b, 0xe6, 0x09, 0x02, 0x04, 0x03, 0xfc, 0x01, 0x05, 0x05, 0x03,
  0xfb, 0xf5, 0xf7, 0xff, 0xfb, 0xe1, 0xfd, 0x0a, 0xea, 0x02, 0x0b, 0x0e,
  0xfa, 0x0b, 0x00, 0x03, 0x05, 0xea, 0x00, 0x07, 0xf4, 0x0a, 0xf9, 0xfc,
  0xee, 0xfa, 0xff, 0xfa, 0x01, 0xfb, 0x0a, 0xff, 0x09, 0x01, 0x0b, 0x13,
  0xaa, 0x04, 0xf2, 0x00, 0x01, 0x02, 0x0c, 0xfa, 0xfb, 0xfb, 0x0f, 0x04,
  0x01, 0xe6, 0xef, 0x09, 0xf5, 0xeb, 0xf5, 0x0c, 0xef, 0xf9, 0x07, 0x0b,
  0xe9, 0xfc, 0x0f, 0xfb, 0x04, 0xfb, 0xfc, 0x06, 0xf8, 0x04, 0x05, 0xf8,
  0xf7, 0x06, 0x03, 0x02, 0x05, 0xf8, 0x07, 0xfa, 0x07, 0x05, 0x02, 0x18,
  0x9f, 0x0a, 0xe9, 0x19, 0x01, 0x0f, 0x0f, 0xf4, 0x06, 0xfd, 0x06, 0x07,
  0x08, 0xee, 0xf7, 0x01, 0xf6, 0xf0, 0x02, 0x08, 0xf2, 0xf9, 0x03, 0x06,
  0xec, 0x0d, 0x06, 0x00, 0x01, 0xf7, 0xf9, 0x01, 0xfa, 0xf9, 0x05, 0x01,
  0xf4, 0xe7, 0x0d, 0xfe, 0x05, 0xff, 0xfb, 0x00, 0x01, 0xf9, 0x06, 0x13,
  0x93, 0x0d, 0xf0, 0x02, 0x07, 0xf7, 0x00, 0xf4, 0xfb, 0xfd, 0x0f, 0xf9,
  0x01, 0xf6, 0xf2, 0xfa, 0xf3, 0xe8, 0x05, 0x0a, 0xe8, 0x03, 0x0c, 0x04,
  0xec, 0x01, 0x0d, 0xfc, 0x01, 0xfc, 0xfa, 0x05, 0xf7, 0x00, 0x04, 0x03,
  0xfb, 0xf0, 0x0c, 0xf6, 0x04, 0xfa, 0x0a, 0x01, 0x0b, 0x02, 0x09, 0x15,
  0x91, 0x05, 0xe2, 0xff, 0x03, 0x03, 0x01, 0xeb, 0x00, 0xfa, 0x0d, 0xff,
  0x04, 0xeb, 0xea, 0x03, 0xf4, 0xf0, 0xfc, 0x00, 0xf5, 0x06, 0x0c, 0xfa,
  0xf5, 0x06, 0x06, 0x04, 0xf3, 0xea, 0xfe, 0x0f, 0xe8, 0x01, 0x08, 0x04,
  0xf5, 0x04, 0x01, 0xfc, 0x0c, 0xf1, 0xfe, 0x06, 0x06, 0xf6, 0x02, 0x0e,
  0xb2, 0x03, 0xed, 0x07, 0xff, 0x02, 0x0e, 0xf0, 0x09, 0xf2, 0x12, 0x03,
  0x06, 0xf3, 0xf5, 0xfe, 0xf3, 0xf6, 0xff, 0x06, 0xfb, 0x04, 0x06, 0x0b,
  0xf2, 0x08, 0xf6, 0x02, 0x00, 0xef, 0xf7, 0x11, 0xf1, 0x08, 0x04, 0xf8,
  0xf3, 0xf3, 0x03, 0xf9, 0x0b, 0xf6, 0xfb, 0x0a, 0x0c, 0xfd, 0x0b, 0x04,
  0x9f, 0x06, 0xff, 0xfb, 0x0b, 0x1c, 0x04, 0x06, 0x00, 0x05, 0x04, 0x07,
  0x0c, 0xfc, 0xe7, 0xfe, 0x0b, 0xfd, 0xfa, 0xf4, 0xfe, 0xfd, 0xf6, 0x07,
  0xf6, 0xf6, 0xfc, 0xfa, 0x12, 0x0a, 0x02, 0x01, 0x0b, 0x0d, 0x0e, 0xf8,
  0x0b, 0xf6, 0x06, 0xf9, 0x01, 0x0c, 0xfb, 0xfe, 0x05, 0xfb, 0x07, 0xf9,
  0x04, 0x02, 0xfb, 0xfa, 0x02, 0xf1, 0x02, 0xfb, 0x04, 0xf8, 0x04, 0xfd,
  0xfd, 0xf9, 0x02, 0xfa, 0x08, 0xfe, 0x07, 0xfe, 0x0a, 0xf3, 0xf8, 0x03,
  0xfe, 0xf6, 0xfa, 0x05, 0x11, 0x05, 0x01, 0xf2, 0x12, 0x0b, 0x0c, 0x06,
  0x0e, 0xf5, 0x07, 0xfb, 0xf2, 0x04, 0xfd, 0xf7, 0x03, 0x02, 0x05, 0x07,
  0x30, 0xf9, 0x05, 0xfa, 0xf5, 0xf8, 0xfc, 0x0f, 0x00, 0x01, 0xf7, 0x00,
  0xf8, 0xfa, 0x0c, 0x0a, 0xfd, 0xfe, 0xfe, 0x07, 0xfd, 0xf4, 0xf4, 0xfb,
  0x0a, 0x07, 0xfc, 0xff, 0x0b, 0x0d, 0x08, 0xf8, 0x05, 0xfa, 0xfe, 0x05,
  0x0f, 0xe7, 0x00, 0xfc, 0xf4, 0x09, 0x02, 0x00, 0xfc, 0x00, 0x04, 0x05,
  0x1c, 0xfa, 0x09, 0xf3, 0xf9, 0xf9, 0xf2, 0x06, 0x03, 0xfc, 0xfd, 0xf5,
  0xf4, 0xf9, 0x05, 0x04, 0x00, 0x02, 0x05, 0x05, 0x02, 0x03, 0xfb, 0xfd,
  0x07, 0x0a, 0xf9, 0xfb, 0x00, 0x05, 0x0c, 0x04, 0x09, 0xff, 0x05, 0x00,
  0x0e, 0xed, 0x0c, 0x0d, 0xf9, 0x06, 0xf9, 0xfb, 0xff, 0xf7, 0x00, 0x09,
  0x1f, 0xfd, 0x0d, 0xf4, 0x00, 0xfd, 0xf2, 0x0b, 0xfb, 0x02, 0xfd, 0x01,
  0xfb, 0x08, 0x00, 0x05, 0x04, 0x00, 0xf6, 0xfb, 0x06, 0x02, 0xf3, 0x05,
  0x0a, 0xfd, 0xfc, 0x05, 0x06, 0xff, 0x07, 0xfe, 0x13, 0xf5, 0x0b, 0x02,
  0xfd, 0xf2, 0x02, 0x0a, 0x00, 0x09, 0x00, 0xf4, 0xfd, 0xff, 0x02, 0xfb,
  0x16, 0xfb, 0x04, 0xf7, 0x03, 0xf7, 0xfd, 0x02, 0x03, 0xf6, 0xf3, 0x03,
  0xfb, 0x05, 0x0f, 0x09, 0x06, 0x0d, 0xfc, 0x03, 0x08, 0x02, 0x05, 0xfe,
  0x09, 0xfb, 0xfd, 0xfc, 0x0a, 0x0c, 0x04, 0x01, 0x0b, 0xfd, 0xfb, 0xf9,
  0xfe, 0xec, 0x0e, 0x0a, 0xfa, 0xfe, 0xfe, 0xfb, 0xfc, 0xfe, 0xfc, 0xfc,
  0x1c, 0x08, 0x09, 0x04, 0xff, 0xf2, 0xfd, 0x08, 0x04, 0xf4, 0x00, 0x01,
  0x06, 0xf4, 0x0e, 0x03, 0x06, 0x05, 0x03, 0x04, 0x01, 0xf3, 0xfa, 0xfb,
  0xfc, 0x06, 0xfe, 0x0b, 0x04, 0x0f, 0x0c, 0xfb, 0x11, 0x04, 0x01, 0xfc,
  0x04, 0xf1, 0x00, 0xfd, 0xf9, 0x06, 0xfc, 0x00, 0x02, 0x07, 0xfc, 0xfd,
  0x17, 0x08, 0x08, 0xf5, 0x07, 0xfe, 0x01, 0xfd, 0xfe, 0x03, 0xf6, 0x05,
  0x06, 0xf9, 0xff, 0x01, 0xfc, 0x06, 0xf5, 0x00, 0x05, 0xff, 0xfc, 0x0b,
  0x08, 0xfb, 0x00, 0x04, 0x09, 0xfe, 0x03, 0xf6, 0x04, 0xfc, 0x05, 0xfa,
  0x0d, 0xef, 0x03, 0x0b, 0x03, 0x02, 0x0e, 0xfa, 0x07, 0x05, 0x0f, 0xfc,
  0x22, 0x01, 0xf9, 0xf7, 0xfe, 0xf6, 0xf9, 0xff, 0xfe, 0x06, 0x07, 0xfe,
  0xf6, 0xfe, 0x03, 0x0c, 0xfb, 0x0b, 0xf1, 0xf7, 0xff, 0xfb, 0xfe, 0x06,
  0x00, 0xfa, 0xfd, 0xfa, 0xff, 0x0d, 0xff, 0xf9, 0x09, 0xfb, 0x0d, 0xfc,
  0x0d, 0xfe, 0x05, 0x01, 0xf8, 0x0a, 0x02, 0xfb, 0xf8, 0x08, 0x0b, 0xfd,
  0xff, 0x04, 0xfd, 0xf7, 0xfb, 0xf8, 0xf7, 0x06, 0xf3, 0xfb, 0xf5, 0x01,
  0xf3, 0x07, 0xfa, 0xfd, 0x03, 0xfe, 0x04, 0x04, 0x01, 0x01, 0xff, 0xf9,
  0x0c, 0xf7, 0x07, 0xfb, 0x06, 0x01, 0x10, 0x00, 0x03, 0x06, 0x0a, 0xfe,
  0x07, 0xfc, 0x08, 0x02, 0xf9, 0xfc, 0x09, 0x02, 0x0c, 0xf8, 0x0e, 0xf9,
  0x10, 0x03, 0x0b, 0xfe, 0xfb, 0x04, 0xf0, 0x09, 0xfb, 0xf5, 0xfd, 0xf5,
  0x0a, 0x06, 0x04, 0x09, 0xfc, 0x09, 0xf5, 0xfc, 0x0b, 0x00, 0x02, 0x02,
  0xfb, 0x09, 0xf5, 0xfc, 0xf6, 0x0d, 0x10, 0xfa, 0xfe, 0x04, 0x07, 0x04,
  0xfc, 0xe8, 0xfb, 0x04, 0xfc, 0xfc, 0xfd, 0xf7, 0xfa, 0x04, 0x05, 0xf5,
  0x0a, 0xf8, 0x00, 0xfa, 0xf8, 0x00, 0xf7, 0x0a, 0xfc, 0xfb, 0xf7, 0x04,
  0xfc, 0xf5, 0x0d, 0x0b, 0xfd, 0x06, 0xfb, 0xf4, 0x10, 0xfe, 0xfe, 0xfe,
  0x0a, 0x03, 0x06, 0x05, 0xfb, 0x05, 0x0d, 0xf5, 0x00, 0x04, 0x07, 0x03,
  0x01, 0xf0, 0xfc, 0x01, 0xf8, 0x00, 0xfa, 0xfc, 0x04, 0x05, 0x09, 0xf8,
  0x12, 0xfe, 0x03, 0xfc, 0x07, 0xfa, 0x03, 0x0b, 0xf9, 0x03, 0x0a, 0xf6,
  0x00, 0x05, 0x00, 0x09, 0x00, 0xfc, 0xf9, 0xff, 0x07, 0x05, 0x00, 0xf7,
  0xfe, 0x03, 0x01, 0x0a, 0xfa, 0x0c, 0x05, 0x06, 0x05, 0xf9, 0xfd, 0xfc,
  0xff, 0xfe, 0xfd, 0x08, 0xfe, 0xfa, 0xfd, 0x02, 0x05, 0xfe, 0x0f, 0xfb,
  0x1f, 0xf6, 0x02, 0xf5, 0xfe, 0xec, 0xf7, 0x04, 0x05, 0x00, 0xfc, 0xf4,
  0x03, 0x07, 0xff, 0x07, 0x06, 0x0b, 0xff, 0xfc, 0xf7, 0x03, 0xff, 0x02,
  0xff, 0x00, 0x01, 0x03, 0x07, 0x06, 0x0c, 0xf9, 0x08, 0xfd, 0xfe, 0xfc,
  0x03, 0xef, 0xfc, 0x07, 0x07, 0xf9, 0x06, 0xf3, 0xff, 0x04, 0x07, 0x07,
  0x02, 0x01, 0x01, 0xf3, 0x06, 0xe9, 0xfa, 0x08, 0x05, 0xf3, 0x03, 0xfb,
  0xf4, 0xf5, 0x00, 0x0e, 0x04, 0x0b, 0xf0, 0x05, 0x02, 0xf8, 0x08, 0x04,
  0xfe, 0xfd, 0x03, 0x04, 0x07, 0x00, 0x08, 0xf6, 0x08, 0x05, 0x00, 0x03,
  0x00, 0xef, 0x03, 0xfe, 0xfb, 0x07, 0x0a, 0xfb, 0x00, 0x09, 0x09, 0xfe,
  0xfa, 0x06, 0x04, 0xfd, 0x04, 0xf0, 0x03, 0x0d, 0xfa, 0x01, 0xf9, 0xf9,
  0x02, 0xfd, 0x00, 0x00, 0xfc, 0x01, 0xf1, 0xfa, 0x00, 0xff, 0x05, 0xff,
  0xfd, 0xf8, 0x00, 0xf9, 0x03, 0x01, 0x09, 0xf4, 0x07, 0x02, 0xfc, 0xf6,
  0x0a, 0xf6, 0x07, 0xfd, 0xf9, 0x0c, 0x0d, 0x05, 0xf7, 0xfc, 0xfc, 0x05,
  0x07, 0xfb, 0x04, 0xf7, 0xff, 0x02, 0xf4, 0x02, 0xf5, 0x09, 0xff, 0xf3,
  0x06, 0x05, 0x09, 0x02, 0x0c, 0x05, 0xf0, 0xfd, 0xff, 0x04, 0xf8, 0xfc,
  0xf6, 0xff, 0x0b, 0x04, 0x03, 0x0d, 0x0f, 0xfd, 0x02, 0x08, 0x0c, 0xfb,
  0x07, 0xff, 0x0a, 0xfa, 0x03, 0x07, 0xfe, 0xf6, 0xf7, 0xf7, 0x12, 0x05,
  0xfb, 0x09, 0xff, 0x06, 0x08, 0xf4, 0xfd, 0x08, 0xf8, 0xf6, 0x0a, 0xfb,
  0xff, 0x00, 0xff, 0x06, 0x06, 0xfb, 0x00, 0x06, 0x08, 0xf0, 0xff, 0xff,
  0x0a, 0xfd, 0x01, 0xfa, 0x0a, 0xfc, 0x09, 0x00, 0x0a, 0x07, 0x0a, 0x06,
  0x03, 0xf7, 0x0c, 0x03, 0x05, 0xfc, 0x05, 0x03, 0x05, 0x06, 0x01, 0xfc,
  0x1c, 0xfd, 0xfb, 0x07, 0x04, 0x00, 0xf3, 0xff, 0xff, 0xff, 0xf9, 0x02,
  0x0d, 0xfe, 0x00, 0x03, 0xff, 0x04, 0x00, 0x03, 0x03, 0xfe, 0x05, 0x06,
  0xfe, 0x08, 0xf5, 0x02, 0x02, 0xfd, 0xfd, 0xfc, 0x02, 0xff, 0xfe, 0xfe,
  0x02, 0xf9, 0x02, 0x07, 0xfd, 0x01, 0xfc, 0xf4, 0x04, 0xf5, 0x07, 0xf7,
  0x0f, 0xfd, 0x01, 0xff, 0xfb, 0xfb, 0x04, 0x09, 0x01, 0x02, 0x09, 0xf8,
  0x01, 0xf9, 0xfe, 0x03, 0x03, 0x04, 0xfb, 0xf6, 0x06, 0x04, 0xf5, 0xf9,
  0xf9, 0xfa, 0xf5, 0xfd, 0x01, 0xfa, 0xff, 0xf6, 0x10, 0xfe, 0x01, 0xf6,
  0x03, 0xe8, 0xf8, 0x09, 0x00, 0x0c, 0x0d, 0xf6, 0x03, 0xff, 0x08, 0x05,
  0x03, 0x0c, 0x0e, 0xf8, 0x04, 0x04, 0xf2, 0x05, 0xf9, 0xf7, 0xfc, 0x00,
  0x05, 0x00, 0x09, 0xff, 0x03, 0xfb, 0xf3, 0xf9, 0x01, 0xff, 0xf7, 0x07,
  0xf9, 0x03, 0x0b, 0x00, 0x04, 0x03, 0xfc, 0xf6, 0x09, 0x04, 0x00, 0x09,
  0x08, 0xee, 0x08, 0xfb, 0x03, 0x0d, 0xff, 0x00, 0xfc, 0x07, 0x0d, 0x05,
  0x10, 0x00, 0x03, 0xf9, 0xfe, 0xf6, 0x01, 0x0d, 0xf7, 0xf9, 0xfa, 0xfe,
  0x03, 0xfc, 0x01, 0x05, 0x0b, 0x04, 0x02, 0x04, 0x01, 0x08, 0xfb, 0xfc,
  0x00, 0x04, 0xfd, 0x01, 0x00, 0x04, 0x01, 0xf9, 0x0b, 0x07, 0x0d, 0x00,
  0x01, 0xea, 0x09, 0xfe, 0x03, 0x0f, 0x02, 0x06, 0xfb, 0x08, 0x01, 0x03,
  0x19, 0x00, 0xf8, 0xf2, 0xff, 0xf8, 0x04, 0x03, 0x03, 0x02, 0xf7, 0x00,
  0x08, 0x00, 0x0a, 0xfd, 0x07, 0x06, 0xfb, 0xfb, 0x06, 0xfd, 0x0a, 0x0a,
  0xff, 0xf9, 0xfe, 0xfc, 0xfd, 0x0a, 0x0c, 0x07, 0x0b, 0x06, 0x02, 0xf8,
  0x07, 0xfa, 0xfe, 0x09, 0x00, 0xfc, 0x01, 0xf6, 0xf8, 0xfb, 0x0d, 0xfe,
  0x12, 0x00, 0x02, 0xfd, 0x02, 0xff, 0xf8, 0x02, 0x00, 0x08, 0x02, 0xf9,
  0x01, 0x01, 0xfa, 0x01, 0x07, 0x08, 0xfb, 0x08, 0xfa, 0x05, 0x05, 0x0a,
  0x04, 0x02, 0x00, 0xf7, 0xf8, 0x0b, 0xfa, 0x05, 0x0d, 0xfe, 0xfd, 0xfd,
  0x08, 0x02, 0x06, 0x03, 0x05, 0x0a, 0x00, 0x03, 0xfd, 0x05, 0x09, 0x03,
  0x00, 0x07, 0x00, 0xfb, 0xf7, 0xf5, 0xf3, 0x09, 0xfb, 0xf9, 0x01, 0xfc,
  0xfd, 0xf8, 0xfb, 0x07, 0x0f, 0x07, 0xf6, 0x06, 0xfe, 0x01, 0x00, 0x05,
  0x05, 0x01, 0xfb, 0xfc, 0x03, 0x0d, 0x08, 0x01, 0x0e, 0xf7, 0x0c, 0x01,
  0x08, 0xf9, 0x01, 0x01, 0xfe, 0x09, 0xff, 0xf5, 0xf6, 0x01, 0x0a, 0xfd,
  0xfb, 0xfd, 0x05, 0xf7, 0x03, 0xf1, 0xf8, 0x06, 0xfe, 0xf8, 0xf3, 0xf8,
  0x00, 0x07, 0x06, 0x08, 0x0b, 0x0d, 0xfc, 0x03, 0x0c, 0xf5, 0x00, 0xfa,
  0x09, 0x04, 0xf9, 0x02, 0xff, 0x01, 0xfb, 0x05, 0x04, 0x04, 0x0c, 0x08,
  0x0f, 0xff, 0x01, 0xf5, 0xfe, 0x0a, 0x05, 0xfc, 0xf8, 0xfc, 0x04, 0x05,
  0x04, 0xfd, 0x08, 0x07, 0x05, 0xf4, 0x02, 0xfb, 0xf6, 0x06, 0x03, 0x05,
  0xfe, 0xfd, 0x06, 0x09, 0x08, 0xff, 0xf0, 0xf5, 0x07, 0x03, 0x06, 0x07,
  0x05, 0xf9, 0xf6, 0xfd, 0x0b, 0xfe, 0x04, 0xfc, 0x04, 0x03, 0x08, 0xff,
  0x0b, 0xf2, 0x02, 0xfa, 0x09, 0x05, 0x0d, 0xf8, 0xf8, 0x03, 0xff, 0xff,
  0x10, 0xf6, 0x04, 0xf2, 0x01, 0x02, 0xfd, 0x0d, 0xf2, 0x04, 0x07, 0xf5,
  0x07, 0x01, 0x07, 0xfd, 0x06, 0x08, 0xf7, 0x06, 0x09, 0xf9, 0x03, 0xfe,
  0x02, 0xfb, 0x01, 0x00, 0xf9, 0xff, 0x01, 0x05, 0x05, 0x03, 0x05, 0x07,
  0x0e, 0x04, 0x09, 0xfd, 0xf3, 0xfb, 0x0b, 0xfc, 0x04, 0xfd, 0x09, 0x05,
  0x10, 0x09, 0x08, 0xf3, 0xfe, 0x01, 0x02, 0xfd, 0xf8, 0xfd, 0x00, 0x05,
  0x08, 0x00, 0xfd, 0x08, 0x03, 0xfe, 0xf0, 0xf9, 0x09, 0xf3, 0xf5, 0xf8,
  0x07, 0x09, 0xf4, 0xf9, 0x06, 0xfe, 0x0a, 0xff, 0x0c, 0x04, 0xfa, 0xfd,
  0xfd, 0xf1, 0xfc, 0x06, 0xf6, 0xfb, 0x0d, 0xf8, 0xf8, 0xf3, 0xf8, 0x04,
  0x07, 0x0b, 0x06, 0xfd, 0x01, 0xfb, 0xf6, 0xff, 0xff, 0x00, 0x05, 0xfa,
  0xfc, 0x01, 0x09, 0x02, 0x04, 0x02, 0xf9, 0xfc, 0x07, 0xf6, 0xfa, 0xfb,
  0x02, 0x05, 0xfb, 0x06, 0xfe, 0x09, 0x02, 0xf2, 0x04, 0xfb, 0x07, 0x08,
  0xff, 0xf7, 0x0a, 0x08, 0x09, 0x03, 0xfd, 0x05, 0xf9, 0xf9, 0x07, 0x09,
  0x02, 0xf9, 0x04, 0xf4, 0x07, 0x06, 0x00, 0xff, 0xfb, 0xfe, 0xf9, 0x06,
  0x08, 0x02, 0x0b, 0x0c, 0x0d, 0x08, 0x00, 0xff, 0x04, 0xfc, 0x00, 0xf7,
  0x04, 0xf6, 0x06, 0x02, 0xfd, 0x08, 0x06, 0x04, 0x0a, 0x06, 0xfa, 0xf7,
  0xfd, 0xf9, 0x05, 0x0a, 0xfa, 0x04, 0xfe, 0xfa, 0xfa, 0x01, 0x08, 0x00,
  0x09, 0x05, 0xfd, 0xfb, 0xfb, 0xf2, 0xf3, 0xfe, 0x06, 0xfb, 0x00, 0x05,
  0xfc, 0x04, 0xfb, 0x01, 0xfb, 0x02, 0xf1, 0x03, 0x09, 0xf5, 0xff, 0x09,
  0x05, 0x04, 0xf5, 0x09, 0xf8, 0x02, 0x08, 0xfa, 0x0f, 0x04, 0x09, 0x04,
  0x06, 0xf4, 0x09, 0xfc, 0xf4, 0x0f, 0xfe, 0x07, 0x03, 0xf9, 0x10, 0x03,
  0x15, 0xfd, 0x03, 0xff, 0xff, 0xef, 0xf6, 0x07, 0xfe, 0xfa, 0xf8, 0xfe,
  0x08, 0xfc, 0xf8, 0x0f, 0xfb, 0x05, 0xf0, 0xf6, 0xfd, 0x04, 0x00, 0x0b,
  0x0d, 0xfb, 0xff, 0x01, 0xfd, 0x06, 0x14, 0xf6, 0x02, 0xfe, 0x06, 0xf5,
  0x07, 0xff, 0xfd, 0xf9, 0xf6, 0x09, 0x04, 0x0b, 0x07, 0x05, 0x07, 0x03,
  0x15, 0x09, 0xf9, 0xf4, 0x07, 0xef, 0xf0, 0xfc, 0x03, 0x00, 0x09, 0x07,
  0xfa, 0x02, 0x01, 0x07, 0x03, 0xff, 0xfb, 0x06, 0xfa, 0xf6, 0x04, 0xfa,
  0x06, 0x00, 0x0a, 0xfe, 0x05, 0x01, 0x08, 0x02, 0x0e, 0x04, 0x08, 0x01,
  0x0e, 0xed, 0x00, 0xff, 0xfd, 0x0e, 0x09, 0x02, 0x02, 0xfc, 0x04, 0x07,
  0x0d, 0xf4, 0xfa, 0x04, 0xf9, 0xf5, 0xfd, 0xfd, 0x01, 0xfe, 0xfe, 0x03,
  0x01, 0xff, 0x09, 0x0e, 0x0a, 0xfb, 0x06, 0xf8, 0x0d, 0x06, 0xf7, 0x00,
  0x02, 0x03, 0xf7, 0x03, 0x06, 0x0c, 0x02, 0xf9, 0x06, 0x06, 0x0c, 0x01,
  0x0b, 0xef, 0x09, 0x08, 0xfd, 0x0d, 0x02, 0xfb, 0xf0, 0x04, 0xff, 0x08,
  0xfb, 0xf9, 0x0e, 0xfa, 0xfd, 0xfa, 0x02, 0x10, 0xfe, 0xf5, 0x00, 0x00,
  0x04, 0x01, 0x06, 0xf9, 0x02, 0xf9, 0x08, 0xfa, 0x02, 0x09, 0xf3, 0x07,
  0x00, 0xfc, 0xff, 0x04, 0x05, 0x0c, 0x0f, 0x02, 0x04, 0xf9, 0x05, 0xf6,
  0x09, 0xef, 0x04, 0x0c, 0x01, 0x03, 0x07, 0x05, 0xfb, 0xfd, 0x02, 0x06,
  0x0d, 0xfb, 0x07, 0x01, 0xf7, 0x06, 0xf2, 0x01, 0xf9, 0xf8, 0xfa, 0x08,
  0xf7, 0xfd, 0x0d, 0x00, 0xfc, 0xff, 0xff, 0x03, 0xfe, 0xfa, 0x00, 0x04,
  0xfa, 0xf9, 0x05, 0xff, 0xff, 0x0b, 0x08, 0xff, 0x10, 0x06, 0x05, 0x00,
  0xfd, 0xf4, 0x0f, 0x0a, 0xf7, 0x0a, 0x01, 0xf9, 0xff, 0x01, 0x12, 0x01,
  0x0a, 0xf7, 0x01, 0xfb, 0x07, 0xf4, 0xf7, 0x05, 0x00, 0x07, 0xfb, 0x06,
  0xfe, 0x04, 0x04, 0x0c, 0x0a, 0x05, 0xf2, 0x00, 0xf9, 0xf2, 0xfa, 0x03,
  0x08, 0x04, 0x07, 0xfc, 0x08, 0xfc, 0x05, 0x02, 0x11, 0xf8, 0x0d, 0x00,
  0x03, 0xf5, 0x04, 0xff, 0x04, 0x09, 0x08, 0xff, 0xf9, 0xfe, 0x0c, 0xf9,
  0xfc, 0x03, 0x07, 0xf5, 0x0a, 0xf6, 0xf4, 0xfe, 0xf6, 0xfe, 0x03, 0x00,
  0x08, 0x00, 0xf9, 0x08, 0x03, 0xf8, 0xf3, 0xfe, 0x00, 0x00, 0xf9, 0xf8,
  0x08, 0xf6, 0x0d, 0x01, 0xff, 0x0c, 0x0d, 0xf5, 0x12, 0xf6, 0x00, 0xfe,
  0xff, 0xe9, 0x02, 0xfb, 0x02, 0x0d, 0xfc, 0xf3, 0xf9, 0xfa, 0x05, 0x02,
  0x11, 0x02, 0x0b, 0x07, 0xfa, 0xf1, 0xfa, 0x0a, 0x01, 0xf6, 0x02, 0xff,
  0xff, 0x00, 0xfa, 0xff, 0xfc, 0x0b, 0x02, 0xfb, 0xfd, 0xf5, 0xf6, 0xfb,
  0xfd, 0xfb, 0x03, 0xfb, 0x0b, 0x02, 0x0a, 0xfd, 0x09, 0xf5, 0x0e, 0xfa,
  0x0e, 0xe9, 0x03, 0xfb, 0x03, 0x06, 0xfe, 0x06, 0xf5, 0x0a, 0x03, 0x00,
  0x10, 0xf4, 0x0b, 0xff, 0x04, 0x00, 0xfc, 0x09, 0xf6, 0xff, 0x08, 0x06,
  0x04, 0xf8, 0x0d, 0x05, 0x09, 0x03, 0xf0, 0x04, 0x01, 0xf6, 0xfd, 0x06,
  0x0b, 0x01, 0xf9, 0x09, 0xfd, 0x0a, 0x04, 0xfd, 0x00, 0xfb, 0xfb, 0xfe,
  0x05, 0xe8, 0xff, 0x01, 0x07, 0x11, 0x04, 0xf5, 0xfd, 0xfe, 0x08, 0x07,
  0x05, 0xfc, 0xf7, 0xee, 0x08, 0xf8, 0xf4, 0x00, 0x04, 0xfa, 0xfa, 0x06,
  0xf9, 0xfe, 0x0e, 0x0e, 0x01, 0x09, 0xf1, 0xf6, 0x0d, 0xf8, 0x05, 0x06,
  0x02, 0x08, 0xf6, 0xf4, 0x02, 0x03, 0x0a, 0xfb, 0x0f, 0x05, 0x04, 0x02,
  0xfc, 0xe5, 0x04, 0xfe, 0xf7, 0x0a, 0x0c, 0xf6, 0xff, 0x06, 0xf6, 0xf4,
  0x08, 0xfe, 0x10, 0xf6, 0x03, 0xfc, 0xfb, 0x03, 0x01, 0xfc, 0xff, 0xf6,
  0x01, 0x04, 0x07, 0x03, 0x0c, 0x0d, 0xfc, 0x06, 0x0b, 0x05, 0xf9, 0xfa,
  0xf9, 0x03, 0x09, 0x04, 0x02, 0x01, 0x06, 0xfb, 0x07, 0xf9, 0x0c, 0x01,
  0x09, 0xfe, 0xfd, 0xfc, 0xfc, 0xfe, 0x0c, 0x07, 0xf6, 0x03, 0x02, 0xf2,
  0x0f, 0x03, 0x0b, 0xf6, 0xf8, 0xf1, 0xfe, 0x0c, 0x01, 0x02, 0xfd, 0x04,
  0xf9, 0x0d, 0x06, 0xff, 0x0d, 0x0c, 0xf8, 0xf8, 0x05, 0x06, 0xf8, 0x05,
  0xfa, 0xf6, 0x01, 0xf9, 0x07, 0x08, 0x01, 0x03, 0x0d, 0x04, 0x0a, 0x00,
  0x08, 0xe8, 0xfd, 0xfe, 0xf8, 0x11, 0x06, 0x04, 0x00, 0x00, 0x07, 0xff,
  0x0b, 0xf7, 0x06, 0x00, 0x08, 0xfa, 0xf0, 0xff, 0xfa, 0x09, 0xfd, 0x04,
  0xfd, 0x03, 0xfd, 0x0d, 0x05, 0xff, 0x00, 0x05, 0x00, 0xfa, 0x00, 0x0a,
  0xf9, 0x0a, 0xfb, 0x03, 0x0e, 0x09, 0x06, 0x03, 0x14, 0x04, 0xfc, 0xf8,
  0x0c, 0xe1, 0x09, 0x0a, 0xf2, 0x0a, 0x02, 0x03, 0xf8, 0x07, 0x09, 0xfe,
  0x1e, 0x04, 0x01, 0xf6, 0xfe, 0xeb, 0xf1, 0x07, 0xfb, 0xf8, 0xf7, 0xfd,
  0xf7, 0x04, 0x0d, 0x07, 0x08, 0x0a, 0x04, 0x08, 0xfe, 0x06, 0x01, 0x09,
  0x05, 0x04, 0xf8, 0x01, 0x0b, 0x07, 0x03, 0xf8, 0x03, 0x0c, 0xff, 0xfe,
  0xff, 0xed, 0x04, 0x0b, 0xf3, 0x02, 0x05, 0xf5, 0xf6, 0xfd, 0x0c, 0xf4,
  0x2f, 0xf3, 0x0d, 0x00, 0xfc, 0x02, 0xfc, 0x05, 0xfe, 0x06, 0xf4, 0xf9,
  0x08, 0x08, 0xfe, 0x05, 0xff, 0x0b, 0xfd, 0xfb, 0x09, 0x03, 0xf0, 0x07,
  0x03, 0x01, 0xff, 0x0b, 0x07, 0x01, 0x02, 0xf5, 0x11, 0xfa, 0x07, 0x05,
  0x0b, 0xf0, 0x0b, 0xfa, 0xf0, 0x09, 0x07, 0x04, 0xf8, 0xfc, 0x07, 0xf4,
  0x15, 0xf7, 0x0d, 0x04, 0xfc, 0xf1, 0xff, 0x02, 0xff, 0xfd, 0xfe, 0x01,
  0xf8, 0xfd, 0x0d, 0x0e, 0x07, 0x04, 0xf9, 0x03, 0x0d, 0x00, 0x00, 0x08,
  0x00, 0xfa, 0xfe, 0x07, 0x04, 0x0d, 0xfa, 0xee, 0x0f, 0xfc, 0x06, 0xf4,
  0x00, 0xe7, 0x08, 0xfe, 0xfe, 0x0b, 0x0a, 0xfa, 0x01, 0xff, 0x05, 0x01,
  0x01, 0xfc, 0x09, 0x04, 0x02, 0xff, 0xf6, 0x07, 0x02, 0x08, 0xfb, 0xfa,
  0xfd, 0x02, 0xfd, 0xfc, 0x0d, 0x08, 0xfb, 0x06, 0xfd, 0xfe, 0xf6, 0x05,
  0x01, 0x08, 0xfd, 0xfc, 0x06, 0x02, 0x06, 0xef, 0x04, 0x00, 0xf9, 0xff,
  0xfb, 0xf4, 0x03, 0x0c, 0xff, 0xfd, 0xf5, 0xf3, 0xf6, 0x0c, 0x02, 0xfc,
  0x1a, 0x07, 0xfc, 0xfe, 0x02, 0xe7, 0xfe, 0xff, 0xfe, 0x0e, 0x03, 0xf6,
  0x01, 0xf9, 0x04, 0xfb, 0xfb, 0x0b, 0xfa, 0xf1, 0x00, 0xff, 0xf3, 0x02,
  0xf6, 0x01, 0x07, 0xff, 0x0c, 0xfe, 0x02, 0xf3, 0x0a, 0xfb, 0x07, 0xf7,
  0x06, 0xf6, 0x00, 0x0a, 0xf2, 0xfd, 0x0c, 0xef, 0x10, 0xff, 0x01, 0xf2,
  0x15, 0x04, 0x0f, 0xff, 0x06, 0xf2, 0xf5, 0x03, 0xf8, 0x04, 0xfa, 0x00,
  0xfc, 0xf9, 0x00, 0xf8, 0x01, 0x0d, 0x03, 0xf3, 0x09, 0xfe, 0xfb, 0xf8,
  0x01, 0xfc, 0x01, 0xf9, 0x0e, 0x08, 0x09, 0xfb, 0x0e, 0x0a, 0x08, 0x06,
  0x0a, 0x01, 0x07, 0xfe, 0xf2, 0x02, 0xfc, 0xfd, 0xf2, 0x03, 0x0a, 0x05,
  0x45, 0xfa, 0x08, 0xf6, 0x04, 0xe7, 0xee, 0x03, 0x06, 0x02, 0xfc, 0xfa,
  0x05, 0xfa, 0x09, 0x0a, 0x08, 0x0a, 0xff, 0xfb, 0xfe, 0xf7, 0xf9, 0x04,
  0xfd, 0xfd, 0xfd, 0xfc, 0x0d, 0x03, 0x03, 0xf4, 0x0d, 0x00, 0x0b, 0xfd,
  0x06, 0xf3, 0x0c, 0x07, 0xf0, 0x04, 0xf7, 0x03, 0xf6, 0x01, 0x02, 0xf8,
  0x38, 0xf4, 0x10, 0xfb, 0xf4, 0xfa, 0xee, 0x0a, 0xf5, 0xff, 0x04, 0x06,
  0xfa, 0x04, 0x00, 0x01, 0x06, 0x01, 0xf8, 0xf7, 0xfb, 0x03, 0xfa, 0xf5,
  0xfc, 0xf8, 0x02, 0xf8, 0xfe, 0x01, 0xf9, 0xfa, 0x0f, 0xfc, 0xfc, 0xfc,
  0x02, 0xf4, 0xff, 0x00, 0xf9, 0x0e, 0xfb, 0xff, 0x00, 0x00, 0x0c, 0xf6,
  0x2f, 0xfe, 0x04, 0xf5, 0xf7, 0xf8, 0x03, 0x0a, 0xfc, 0x00, 0x05, 0xf4,
  0xf1, 0x09, 0x04, 0x0f, 0x0c, 0x05, 0xfd, 0xf4, 0xfa, 0x01, 0xf7, 0x00,
  0xfc, 0xf7, 0x05, 0x08, 0x0e, 0xfd, 0x06, 0xf7, 0x0e, 0x04, 0x04, 0x04,
  0x07, 0x06, 0xfc, 0x0d, 0xff, 0xfe, 0x04, 0xf2, 0xfa, 0xf8, 0xf6, 0x05,
  0x33, 0xf3, 0x04, 0x08, 0xf0, 0xf1, 0x01, 0x0a, 0xf4, 0x03, 0x04, 0xff,
  0xf5, 0x06, 0x0e, 0xfc, 0xff, 0x02, 0xf7, 0xfa, 0x03, 0x04, 0xf8, 0xf6,
  0x01, 0x02, 0xf9, 0xfc, 0x0d, 0x09, 0x0a, 0xf6, 0x08, 0x09, 0xfb, 0xfc,
  0x0d, 0xfc, 0x02, 0x09, 0xff, 0x0a, 0xfd, 0x01, 0xf5, 0xff, 0x09, 0xfb,
  0x1f, 0x03, 0x11, 0xf8, 0x06, 0x01, 0xff, 0x06, 0xf8, 0x01, 0xfe, 0xf9,
  0xf6, 0xfd, 0x0a, 0xfd, 0xfe, 0x00, 0xf6, 0xf9, 0x0e, 0x01, 0xf2, 0x02,
  0x0c, 0xf6, 0xff, 0x01, 0x09, 0x08, 0x07, 0xef, 0x11, 0x08, 0x07, 0xf4,
  0x06, 0xfa, 0x06, 0x06, 0xf5, 0x05, 0x05, 0x03, 0xfa, 0x04, 0xfc, 0x09,
  0x27, 0xf6, 0x0a, 0x07, 0x00, 0xf8, 0xf3, 0x04, 0xf8, 0x01, 0xf5, 0x07,
  0x00, 0x03, 0x06, 0xff, 0x06, 0x08, 0x05, 0xf4, 0x0b, 0xfd, 0xfd, 0xf4,
  0x05, 0xfd, 0x06, 0x08, 0x07, 0xfd, 0x01, 0xf7, 0x03, 0xf9, 0x0d, 0xff,
  0xfa, 0xfd, 0x07, 0x01, 0x0e, 0x08, 0xfe, 0x05, 0x00, 0x01, 0x03, 0x02,
  0x3a, 0x00, 0x0b, 0xf4, 0xfe, 0x04, 0xf0, 0xfd, 0xf3, 0x05, 0xf3, 0x04,
  0xf3, 0x05, 0x08, 0xfd, 0x03, 0x0c, 0xff, 0xf4, 0x07, 0x00, 0xfa, 0xf4,
  0x0d, 0xff, 0xfa, 0xfa, 0x0a, 0x06, 0xfb, 0xfe, 0x01, 0x06, 0xfe, 0xf8,
  0x0a, 0x01, 0x07, 0x0f, 0xfa, 0x0a, 0x03, 0xf7, 0xfe, 0x0c, 0x04, 0x03,
  0x26, 0xf4, 0xfb, 0xfd, 0xfc, 0x05, 0xff, 0x0c, 0xf8, 0x05, 0xfd, 0x01,
  0x05, 0x05, 0x00, 0x08, 0x01, 0x05, 0xf4, 0xf5, 0x0c, 0xf7, 0xf7, 0x01,
  0x10, 0x05, 0x07, 0xff, 0x06, 0xfd, 0x10, 0xf9, 0x0d, 0xfe, 0x00, 0x04,
  0x09, 0x0c, 0x04, 0x10, 0xfe, 0x03, 0x05, 0x03, 0xfb, 0xf6, 0x07, 0x01,
  0x29, 0xfe, 0x07, 0x03, 0xf9, 0xfa, 0xfe, 0xfc, 0xf5, 0x02, 0xf8, 0x00,
  0xf8, 0xff, 0x02, 0x03, 0x04, 0xfb, 0xf8, 0xf8, 0xfc, 0xf6, 0xf7, 0xf6,
  0x0b, 0xfe, 0xf7, 0x04, 0x03, 0x04, 0x0a, 0x01, 0x0b, 0xf7, 0xfd, 0x05,
  0x08, 0xf0, 0x09, 0xfb, 0x06, 0xff, 0x01, 0x07, 0xff, 0xfb, 0x04, 0xf5,
  0x24, 0x03, 0x06, 0x02, 0xfb, 0xfe, 0xf4, 0x05, 0xff, 0xfb, 0x04, 0x01,
  0x04, 0xfa, 0x02, 0xfe, 0xff, 0x06, 0xfe, 0xf5, 0x12, 0xfe, 0x03, 0x07,
  0x0c, 0xf9, 0xf7, 0xf7, 0x06, 0x02, 0x12, 0xfb, 0x10, 0xff, 0xf9, 0xf9,
  0x0a, 0xfe, 0xfa, 0x06, 0x02, 0x08, 0xfa, 0xfe, 0x00, 0x0a, 0x07, 0xfc,
  0x21, 0x07, 0x02, 0xf9, 0xf7, 0xf9, 0xf4, 0x01, 0xf9, 0x09, 0x05, 0xfb,
  0xf7, 0xf8, 0x02, 0x08, 0x08, 0xf8, 0xf6, 0xfd, 0x09, 0xfe, 0xf7, 0x02,
  0xfe, 0xfe, 0xf6, 0x0b, 0x0c, 0x01, 0x02, 0xfc, 0x0a, 0xfd, 0xfd, 0xf6,
  0x00, 0xfb, 0xff, 0x0b, 0xf8, 0x07, 0xfb, 0xfa, 0xf9, 0xff, 0x04, 0xf9,
  0x2a, 0xfa, 0x05, 0xfe, 0x02, 0xfe, 0xfc, 0xf8, 0xfc, 0x06, 0x03, 0xf3,
  0xf9, 0x08, 0x06, 0xfe, 0x09, 0xf9, 0x02, 0xfa, 0x06, 0xf7, 0xff, 0x07,
  0xfb, 0x06, 0xf6, 0xf6, 0xfe, 0xfb, 0x01, 0x00, 0x07, 0x06, 0x01, 0xfa,
  0xfa, 0xf3, 0x07, 0x0c, 0xfd, 0xf8, 0x04, 0x03, 0x04, 0x06, 0x05, 0x05,
  0x1c, 0xfa, 0x04, 0x01, 0x07, 0xf6, 0xf5, 0x07, 0xfd, 0xf9, 0xf6, 0xf3,
  0xfd, 0x06, 0x0a, 0x0a, 0x03, 0xf9, 0xf6, 0xf5, 0x05, 0xfe, 0x05, 0x02,
  0x09, 0x00, 0x05, 0x02, 0xff, 0x0e, 0x01, 0xf8, 0x02, 0xfe, 0x04, 0xfc,
  0xfd, 0xeb, 0x09, 0x08, 0x03, 0x04, 0xff, 0x04, 0xfa, 0x08, 0x08, 0xfd,
  0x17, 0x01, 0x0d, 0xfe, 0xf9, 0xfe, 0xf1, 0x09, 0xfc, 0xfb, 0x01, 0x03,
  0x08, 0xf5, 0xf9, 0x00, 0xf7, 0xfe, 0xf4, 0xf4, 0xfe, 0xf1, 0xf5, 0x03,
  0xfc, 0xfb, 0xfa, 0x09, 0x09, 0xfc, 0x08, 0x00, 0x09, 0xfd, 0xfa, 0x03,
  0xfe, 0xf0, 0x0b, 0x02, 0x08, 0x05, 0x0c, 0x03, 0x03, 0x06, 0x09, 0xfc,
  0x20, 0xfd, 0x01, 0x02, 0x07, 0xfb, 0xfa, 0x00, 0x03, 0xfe, 0x09, 0x05,
  0xf8, 0x0b, 0xfd, 0x0c, 0x0c, 0x0a, 0xf8, 0xf7, 0xfb, 0xf3, 0x04, 0xf7,
  0xff, 0x02, 0x02, 0xfd, 0x07, 0x0b, 0x05, 0x01, 0x0b, 0x05, 0x09, 0xf9,
  0x04, 0x04, 0x02, 0xfd, 0xfb, 0x07, 0x05, 0x06, 0xf7, 0xfb, 0x13, 0xfd,
  0x08, 0xf6, 0x0e, 0x02, 0x03, 0xfd, 0x02, 0x08, 0xf7, 0xff, 0x03, 0x04,
  0x09, 0x00, 0xfb, 0x08, 0xfe, 0xff, 0x05, 0xf7, 0x0d, 0xff, 0xfd, 0xff,
  0x03, 0x07, 0xf7, 0xfd, 0xfa, 0x0b, 0x00, 0xff, 0x0a, 0x06, 0x02, 0xf7,
  0xf9, 0x04, 0x00, 0x01, 0x06, 0xfc, 0x05, 0x04, 0xfe, 0x02, 0x00, 0x02,
  0x24, 0x04, 0x05, 0xf7, 0x08, 0x01, 0xf5, 0x05, 0xfd, 0x01, 0x0a, 0xfc,
  0x07, 0xfb, 0x03, 0x10, 0xf9, 0xff, 0xfd, 0xf5, 0x03, 0xfc, 0x08, 0xfd,
  0x0b, 0x0a, 0x02, 0x01, 0xfb, 0x0d, 0x11, 0xf7, 0x11, 0x04, 0x09, 0xfd,
  0xfc, 0xff, 0xfd, 0x02, 0xf7, 0x02, 0x0c, 0xf8, 0xfa, 0xf7, 0x0a, 0x03,
  0x2f, 0x0c, 0xfb, 0x02, 0xfc, 0x05, 0x00, 0xff, 0xf6, 0x06, 0x04, 0x00,
  0x04, 0x08, 0xfa, 0x11, 0x08, 0xff, 0xf4, 0xfe, 0x0d, 0xf7, 0xf9, 0x02,
  0x05, 0x06, 0xf2, 0xfb, 0x06, 0x0a, 0x0c, 0x05, 0x06, 0xff, 0xfc, 0xf6,
  0xf8, 0xeb, 0x02, 0xfa, 0xff, 0x01, 0x0c, 0x02, 0x07, 0xf7, 0x08, 0xfb,
  0x20, 0xfd, 0x01, 0xf9, 0x02, 0x03, 0xff, 0xfe, 0x01, 0xf9, 0xf8, 0x03,
  0xf5, 0x01, 0xf9, 0x0e, 0x08, 0xfc, 0xf7, 0xf3, 0x0a, 0xfc, 0xf5, 0x00,
  0x00, 0x00, 0xf6, 0xfa, 0x01, 0x0b, 0x0b, 0xf3, 0x04, 0xfe, 0xff, 0xfd,
  0x09, 0xfd, 0x06, 0x0b, 0x08, 0x08, 0x05, 0x02, 0x0a, 0xff, 0x00, 0xf5,
  0x1f, 0x0a, 0x00, 0xfe, 0x07, 0x01, 0xff, 0xfc, 0xf4, 0x00, 0xf3, 0x09,
  0xf6, 0x0d, 0xf6, 0x03, 0x04, 0x09, 0xfd, 0xf7, 0x02, 0xf6, 0x07, 0x02,
  0x04, 0x01, 0xfa, 0x08, 0xfa, 0xfb, 0x10, 0x01, 0x04, 0x00, 0x00, 0xf9,
  0xfb, 0xff, 0x00, 0x0c, 0x09, 0x08, 0x03, 0xfc, 0xf9, 0xf7, 0x02, 0xf9,
  0x34, 0xff, 0x05, 0x01, 0x07, 0x00, 0x01, 0x00, 0xf9, 0xfd, 0xf7, 0xfe,
  0xf9, 0xfe, 0x05, 0x0a, 0xf8, 0xf8, 0xfe, 0x02, 0xff, 0xfb, 0xf7, 0x06,
  0x09, 0x00, 0xf8, 0xfb, 0x06, 0x08, 0x15, 0xf5, 0x05, 0xf4, 0x0c, 0xf3,
  0xfa, 0xff, 0x03, 0x03, 0xfe, 0x03, 0x02, 0xf8, 0xf8, 0xfa, 0x11, 0xf8,
  0x20, 0x01, 0xfc, 0xf8, 0xfe, 0x04, 0x02, 0x01, 0xfd, 0x0b, 0x00, 0xfe,
  0xfe, 0xf9, 0x02, 0x0e, 0x08, 0xf9, 0x04, 0x04, 0x02, 0xfa, 0x00, 0xfe,
  0x05, 0xfc, 0x04, 0xf5, 0xfe, 0x00, 0x0b, 0xfd, 0xff, 0x00, 0x00, 0xf7,
  0xf7, 0x02, 0x08, 0x03, 0xfc, 0x0e, 0x09, 0x06, 0x08, 0xfb, 0xff, 0xff,
  0x1d, 0x04, 0x02, 0xf5, 0x03, 0xf2, 0x01, 0x04, 0xf0, 0xff, 0xfd, 0xf6,
  0xfa, 0xfe, 0x05, 0x10, 0x00, 0x07, 0xf4, 0xf3, 0x0c, 0xf7, 0xfe, 0xf5,
  0xff, 0xff, 0xf7, 0x03, 0xfb, 0x00, 0x0c, 0xfd, 0x0c, 0x08, 0x03, 0xf3,
  0xfe, 0x0a, 0x04, 0xfe, 0xf8, 0x09, 0xfa, 0xf8, 0xfd, 0x07, 0x00, 0x05,
  0x1a, 0x07, 0xfe, 0x05, 0xff, 0xf2, 0xfa, 0xfb, 0xf6, 0xf8, 0xfc, 0x07,
  0x01, 0xfe, 0xff, 0x0b, 0x0b, 0x05, 0xf5, 0xf8, 0x06, 0xf9, 0xfe, 0xfb,
  0xfc, 0x09, 0xf8, 0x09, 0xfb, 0x02, 0xff, 0x01, 0x13, 0xf5, 0x04, 0x02,
  0x0a, 0xfc, 0x02, 0x09, 0x04, 0xfc, 0xff, 0x08, 0x02, 0x04, 0x05, 0x0b,
  0x1d, 0x09, 0xff, 0x07, 0x06, 0xf5, 0xfd, 0x01, 0x02, 0x06, 0xfe, 0x07,
  0xf7, 0xfa, 0xf9, 0x0b, 0xfc, 0x09, 0xf5, 0xf7, 0xfe, 0x06, 0x05, 0x01,
  0xfb, 0xfa, 0x03, 0x07, 0x09, 0x00, 0x06, 0xef, 0x08, 0xfd, 0x0f, 0xfc,
  0x02, 0xfa, 0x07, 0xfb, 0x01, 0x02, 0x0a, 0x01, 0xf7, 0x02, 0x09, 0xf6,
  0x1d, 0x0a, 0xf9, 0xfd, 0xfc, 0xfe, 0xf5, 0x04, 0xf3, 0xfd, 0x04, 0x06,
  0x00, 0x09, 0x04, 0xfb, 0xfd, 0xf9, 0xf9, 0xfd, 0x00, 0xfa, 0xfa, 0x06,
  0x09, 0xfd, 0xf9, 0xfd, 0x08, 0xfc, 0x03, 0xf8, 0x06, 0x06, 0xfc, 0x01,
  0xf9, 0xff, 0x09, 0xff, 0xf7, 0x08, 0xfc, 0x08, 0x00, 0xf7, 0x02, 0x02,
  0x23, 0x08, 0x05, 0x03, 0xfe, 0xf7, 0xfa, 0x00, 0xf3, 0xf8, 0xf9, 0xfc,
  0xfe, 0xfc, 0x08, 0x06, 0x0d, 0xf3, 0xf2, 0x05, 0x0e, 0xff, 0xf9, 0xfd,
  0x0a, 0x03, 0xf3, 0xfc, 0x03, 0xfe, 0x0b, 0xfe, 0x02, 0xfb, 0xfd, 0x00,
  0xf9, 0xfe, 0x04, 0xfd, 0xf9, 0x08, 0xfe, 0xfd, 0x01, 0xf5, 0x08, 0x0c,
  0x1a, 0x03, 0xf8, 0xff, 0x06, 0xf8, 0xf8, 0x08, 0x01, 0xfb, 0xf9, 0x03,
  0xfe, 0x03, 0xfa, 0x02, 0x04, 0xf5, 0xf0, 0x05, 0xfe, 0xfa, 0xff, 0xf4,
  0x07, 0x07, 0xf7, 0xf9, 0x02, 0x0c, 0xfd, 0xf1, 0x0c, 0xfb, 0x04, 0xf4,
  0x07, 0xf8, 0x0a, 0xf9, 0xfd, 0x00, 0xfd, 0x0a, 0xf7, 0xfa, 0x05, 0x02,
  0x08, 0xfe, 0xf6, 0xf8, 0xf9, 0xf9, 0xf0, 0x00, 0x05, 0x06, 0xf8, 0x04,
  0x01, 0x04, 0xfb, 0x08, 0x04, 0x00, 0xf5, 0xfb, 0x05, 0x03, 0x09, 0x07,
  0x03, 0xf8, 0x08, 0x05, 0x07, 0x04, 0x08, 0xff, 0x0a, 0xf7, 0xf9, 0xfd,
  0x0b, 0xf6, 0x02, 0xfd, 0xf2, 0x05, 0xf9, 0x08, 0xf6, 0xf8, 0x07, 0xf8,
  0x0f, 0xfc, 0xf9, 0xf0, 0xfc, 0xf8, 0xf5, 0x07, 0x01, 0x0c, 0xff, 0x06,
  0x01, 0x01, 0xff, 0x00, 0x05, 0x00, 0xf8, 0x07, 0x00, 0xf5, 0xff, 0x06,
  0x05, 0x08, 0xff, 0xf6, 0x01, 0x06, 0x08, 0xf5, 0x01, 0xf7, 0x03, 0xfb,
  0x0e, 0xf1, 0x00, 0xfe, 0xfb, 0x02, 0x05, 0xfd, 0x03, 0xf8, 0x01, 0x04,
  0x1a, 0xfa, 0xfc, 0x07, 0x04, 0xf0, 0x01, 0x07, 0xff, 0x08, 0xfd, 0x06,
  0x00, 0xf9, 0x0a, 0x0b, 0xfe, 0xf9, 0xf5, 0xfb, 0xfe, 0x05, 0xfb, 0xf7,
  0xfe, 0x03, 0x07, 0xff, 0xff, 0xfb, 0x11, 0xff, 0x08, 0xf5, 0x08, 0x04,
  0x02, 0x05, 0x02, 0xfa, 0x06, 0x0f, 0x00, 0x07, 0x07, 0xf5, 0x09, 0xfb,
  0x25, 0xfd, 0x09, 0xf7, 0xfc, 0xf7, 0x02, 0xfa, 0xff, 0xfd, 0x01, 0xf6,
  0xfd, 0xff, 0xfe, 0x0c, 0x0b, 0xfe, 0xec, 0x01, 0x03, 0xf3, 0x06, 0x05,
  0xfd, 0xf8, 0xfa, 0x08, 0x02, 0x09, 0x09, 0xfb, 0x06, 0xf4, 0xff, 0xf9,
  0xfe, 0xf5, 0x06, 0x0d, 0x00, 0x08, 0x02, 0x04, 0x09, 0x05, 0x0a, 0xff,
  0x1a, 0xf9, 0x05, 0xfc, 0xfd, 0xf7, 0xfd, 0xf6, 0xf6, 0xf6, 0xf6, 0xf7,
  0xfc, 0x04, 0x03, 0x0d, 0xfb, 0x05, 0xf8, 0x05, 0x02, 0x00, 0xfd, 0xf7,
  0x05, 0x02, 0x02, 0xfb, 0x00, 0x04, 0x0d, 0xf5, 0x04, 0xff, 0xfc, 0xf5,
  0xfc, 0xf6, 0xfc, 0x07, 0x04, 0x0c, 0xff, 0xfe, 0xfe, 0xf3, 0x0b, 0x0a,
  0x0c, 0x03, 0x09, 0x05, 0x01, 0xf9, 0xfb, 0x02, 0xf7, 0xfa, 0x04, 0x06,
  0xf6, 0x07, 0x00, 0xfd, 0xfc, 0x00, 0xf9, 0x00, 0xfc, 0xf7, 0xf4, 0xf4,
  0xf9, 0x04, 0xf6, 0xfc, 0xfb, 0x04, 0x0b, 0xf2, 0x0a, 0x05, 0x08, 0x00,
  0x03, 0xfd, 0x0e, 0xfa, 0x04, 0x01, 0xfd, 0x02, 0xf6, 0xfa, 0x06, 0x06,
  0x2e, 0x07, 0x0b, 0x04, 0x06, 0xfd, 0xf8, 0x01, 0xf3, 0x03, 0xfb, 0x07,
  0x07, 0x09, 0x0d, 0x09, 0xfd, 0x0b, 0x04, 0xf9, 0xf9, 0xf8, 0xf8, 0xff,
  0x03, 0xf4, 0xf8, 0xfb, 0x05, 0x02, 0x0a, 0x06, 0x09, 0xfa, 0x06, 0xfa,
  0x05, 0x03, 0x11, 0x08, 0xf5, 0xff, 0x01, 0x04, 0x02, 0xf7, 0x03, 0xfb,
  0x2b, 0x00, 0x09, 0xfb, 0xf9, 0x05, 0x01, 0x08, 0x00, 0x05, 0xfb, 0xfe,
  0xf9, 0x07, 0xf7, 0x0d, 0x02, 0x07, 0xf1, 0x03, 0xfb, 0xfd, 0x05, 0x07,
  0x03, 0xf9, 0x0a, 0xfd, 0x02, 0x0a, 0xfe, 0x03, 0x08, 0x02, 0xfc, 0xf3,
  0x03, 0xea, 0x06, 0x01, 0xfb, 0x08, 0xfb, 0xf3, 0xfc, 0xfe, 0x00, 0x05,
  0x18, 0xfd, 0x00, 0x09, 0xf8, 0xfa, 0x00, 0xfb, 0xf6, 0x02, 0x03, 0xfa,
  0xfd, 0x07, 0x03, 0x07, 0x0d, 0x08, 0xf8, 0xf7, 0xfd, 0x04, 0x01, 0xfb,
  0xfd, 0x01, 0x0e, 0x04, 0x0b, 0x0c, 0x0e, 0xf9, 0x0a, 0xf9, 0x02, 0xf2,
  0xfa, 0xf1, 0x10, 0x04, 0xff, 0x06, 0xf7, 0xf4, 0x05, 0xfe, 0x07, 0x04,
  0x25, 0xfd, 0x02, 0x07, 0xfd, 0xff, 0xf8, 0xfc, 0x05, 0xfc, 0x06, 0xf5,
  0x05, 0x04, 0x02, 0x03, 0x04, 0x01, 0x01, 0xf6, 0x05, 0x00, 0xfb, 0x01,
  0x05, 0x02, 0xf8, 0xfe, 0xfd, 0x05, 0x0c, 0xf1, 0x0b, 0x03, 0x09, 0x05,
  0x02, 0xf2, 0x03, 0x03, 0x02, 0x00, 0x05, 0xf2, 0xf8, 0x02, 0x0d, 0xf7,
  0x2b, 0x02, 0x09, 0xf7, 0xf6, 0xfc, 0xfa, 0xfd, 0x01, 0x07, 0x0a, 0xf9,
  0xfc, 0x05, 0x0a, 0x08, 0x06, 0x0a, 0xf1, 0xf8, 0x09, 0xfa, 0xfb, 0x05,
  0x05, 0xf6, 0xf7, 0x06, 0x03, 0xfb, 0x05, 0x03, 0x10, 0x01, 0xf9, 0xf8,
  0x02, 0xf9, 0x0e, 0xf9, 0x06, 0x0a, 0xfc, 0x05, 0xfe, 0x06, 0x01, 0xf7,
  0x26, 0x04, 0xfc, 0xf8, 0xf9, 0xfa, 0xf6, 0x00, 0x05, 0xfd, 0x03, 0xf3,
  0x00, 0x08, 0x01, 0xff, 0x0a, 0x07, 0xf2, 0xfb, 0x00, 0x05, 0xf4, 0x01,
  0x02, 0x03, 0xfd, 0xff, 0xfa, 0x05, 0x0d, 0xf5, 0x02, 0xfd, 0xfd, 0x01,
  0x04, 0xf7, 0x04, 0x03, 0xf4, 0x09, 0xfb, 0xfe, 0xf6, 0x06, 0xfa, 0x06,
  0x11, 0xfe, 0x0f, 0xf7, 0xfd, 0xfa, 0xf8, 0x0b, 0x03, 0xfe, 0x01, 0x04,
  0x04, 0x0b, 0x03, 0xff, 0x04, 0x0d, 0xef, 0x03, 0x01, 0x05, 0xf7, 0x04,
  0x06, 0x03, 0xfd, 0xfe, 0xfd, 0x02, 0x11, 0xfc, 0x08, 0x01, 0x02, 0x04,
  0x01, 0xfe, 0x05, 0x05, 0x00, 0x0e, 0xf9, 0xfa, 0xf1, 0x08, 0x0a, 0xff,
  0x1a, 0x00, 0x0f, 0x08, 0xf3, 0xff, 0xf6, 0x08, 0x01, 0xf9, 0xf8, 0xfc,
  0xfd, 0x03, 0x09, 0x05, 0x02, 0xfd, 0xf7, 0x00, 0xfa, 0xf6, 0xfe, 0xfb,
  0x0a, 0xf6, 0x02, 0x01, 0x0c, 0x07, 0x10, 0x02, 0x0c, 0x03, 0x04, 0xfd,
  0x07, 0xef, 0x11, 0x04, 0x01, 0x11, 0xfa, 0x06, 0x07, 0x07, 0x0f, 0xf8,
  0x1a, 0xfd, 0xff, 0x05, 0x03, 0xf3, 0xf4, 0xfe, 0xf7, 0xfb, 0x04, 0x08,
  0x08, 0x04, 0x09, 0x04, 0x0d, 0x0c, 0xf9, 0x01, 0xfd, 0xfb, 0x05, 0xfa,
  0xfc, 0xfa, 0xfc, 0xf8, 0xff, 0xfe, 0x11, 0xf1, 0x13, 0x04, 0x01, 0xf7,
  0x08, 0xea, 0x0c, 0xff, 0xf9, 0x09, 0xf5, 0xf6, 0xfc, 0x07, 0x02, 0x03,
  0x2f, 0xfa, 0x0a, 0x08, 0xf6, 0xf1, 0x01, 0xff, 0x08, 0xfb, 0x07, 0xfe,
  0x08, 0xfe, 0x05, 0x0d, 0x00, 0x05, 0xf0, 0x07, 0xfe, 0xf7, 0xfe, 0xff,
  0x08, 0x00, 0x05, 0x03, 0x02, 0x0e, 0x15, 0xf5, 0x0a, 0xfb, 0x00, 0x06,
  0xfc, 0x02, 0x0a, 0x0a, 0xfb, 0x04, 0x09, 0xf0, 0x01, 0x03, 0x08, 0x04,
  0x3e, 0xfc, 0x04, 0x08, 0xf3, 0xf4, 0xf1, 0x06, 0xfb, 0xfb, 0xfe, 0x07,
  0x09, 0x07, 0x07, 0xff, 0x08, 0x06, 0xf7, 0xf7, 0xff, 0x00, 0x05, 0xfa,
  0xfb, 0xf8, 0xff, 0x00, 0x03, 0x11, 0x07, 0xec, 0x0d, 0x01, 0x03, 0x02,
  0x00, 0xf8, 0x06, 0x09, 0xfc, 0xfe, 0x06, 0x03, 0xf5, 0xfc, 0x0d, 0xfc,
  0x2d, 0x03, 0x0d, 0xfd, 0xf9, 0xf3, 0xfa, 0x03, 0x00, 0x00, 0x06, 0x00,
  0x05, 0x07, 0x04, 0x0d, 0x04, 0xf9, 0x03, 0x05, 0x02, 0x04, 0x02, 0xff,
  0xfa, 0x02, 0xfb, 0x07, 0xff, 0x00, 0xfd, 0xf0, 0x07, 0x09, 0x0a, 0xfa,
  0x0a, 0xf5, 0x13, 0xfe, 0x05, 0x0b, 0x03, 0xf0, 0xf9, 0x10, 0x08, 0xf6,
  0x0a, 0xf3, 0x04, 0x04, 0xf6, 0xfa, 0xf6, 0x07, 0x05, 0x04, 0xf8, 0x01,
  0xfc, 0xfb, 0x06, 0x0c, 0x03, 0xf6, 0x04, 0xf5, 0x05, 0x07, 0x02, 0x02,
  0xfb, 0xf8, 0x0d, 0xfb, 0xf5, 0x08, 0x0f, 0xf8, 0x0c, 0xf7, 0x09, 0x06,
  0xfc, 0x00, 0xff, 0x04, 0xf3, 0xfc, 0x05, 0x01, 0xf5, 0x08, 0xfd, 0xfc,
  0x26, 0xfe, 0xfb, 0x0a, 0x00, 0xf4, 0xf0, 0xf4, 0xfa, 0x0c, 0xfa, 0xf7,
  0xfc, 0x04, 0x0c, 0x0e, 0x03, 0xfb, 0x06, 0xfd, 0xf9, 0x0e, 0x01, 0xfa,
  0xdd, 0x0a, 0xfd, 0xff, 0xf4, 0x01, 0xe2, 0xf4, 0xf5, 0xfe, 0xfe, 0xf2,
  0x02, 0xeb, 0x0a, 0x09, 0x0c, 0xfa, 0x02, 0x0c, 0x00, 0x0b, 0xf7, 0x1b,
  0xc2, 0xfd, 0xe3, 0x00, 0x01, 0x1d, 0xfe, 0xf1, 0x07, 0xfe, 0x02, 0xfe,
  0xf6, 0xf7, 0x12, 0xf9, 0xf6, 0xe9, 0xfa, 0x03, 0xf3, 0x06, 0xfe, 0x02,
  0xe9, 0x08, 0x19, 0x03, 0x02, 0xf7, 0xf6, 0xf1, 0xf4, 0xfe, 0x06, 0xea,
  0xfb, 0xe5, 0xfe, 0x00, 0x01, 0x00, 0xfd, 0xfa, 0xf4, 0x0b, 0xfa, 0x17,
  0x81, 0x0d, 0xf2, 0xfd, 0xf9, 0x17, 0x0e, 0xf2, 0x08, 0xfa, 0x08, 0x08,
  0xfe, 0xef, 0xee, 0xf5, 0xf4, 0xe2, 0xfe, 0x08, 0xff, 0x07, 0x05, 0xfe,
  0xe1, 0x0a, 0x09, 0x01, 0xf6, 0xfe, 0xec, 0xfd, 0xf2, 0x04, 0x05, 0xf0,
  0xed, 0x10, 0x00, 0x01, 0x0a, 0xf3, 0xfe, 0x04, 0x08, 0xfe, 0x00, 0x13,
  0x94, 0x00, 0xe9, 0x06, 0xfa, 0x10, 0xfd, 0xfc, 0xfa, 0x09, 0x0d, 0x05,
  0x00, 0xf6, 0xf7, 0xe7, 0xf6, 0xdf, 0x06, 0x01, 0xf1, 0x05, 0x06, 0x03,
  0xe7, 0x06, 0x02, 0x06, 0xff, 0xfa, 0xef, 0xfd, 0xee, 0xfc, 0x00, 0xf1,
  0xf8, 0x01, 0x02, 0xff, 0xfb, 0x03, 0xfa, 0xfd, 0xfe, 0x0a, 0x0c, 0x18,
  0x99, 0x0f, 0xe5, 0x08, 0x0a, 0xff, 0x01, 0xfe, 0x0b, 0x06, 0x0c, 0x09,
  0x0c, 0xf3, 0xf1, 0xf5, 0xf5, 0xe4, 0xff, 0x0a, 0x01, 0x00, 0x0a, 0x05,
  0xe0, 0x0c, 0x0f, 0x08, 0xf8, 0xfa, 0xe4, 0x05, 0xe5, 0x0d, 0xf4, 0xf9,
  0xee, 0xff, 0x03, 0x03, 0x09, 0xfa, 0xfa, 0x03, 0x00, 0x03, 0x0b, 0x09,
  0xa0, 0x06, 0xf1, 0x04, 0x03, 0x00, 0x0d, 0xfa, 0xff, 0x01, 0x16, 0x06,
  0x05, 0xf1, 0xef, 0xeb, 0xef, 0xeb, 0x07, 0xff, 0xfb, 0xfe, 0xfe, 0x02,
  0xe6, 0xfe, 0x04, 0x00, 0x03, 0xfa, 0xf2, 0x06, 0xe6, 0x07, 0xff, 0xf1,
  0xff, 0x07, 0x0e, 0xfb, 0x0a, 0x04, 0xfc, 0x01, 0xfe, 0x09, 0x03, 0x04,
  0xb1, 0x06, 0xee, 0xf9, 0xfa, 0x0d, 0xfd, 0xec, 0x05, 0x00, 0x07, 0x06,
  0xff, 0xf9, 0xfe, 0xff, 0xf0, 0xee, 0xfd, 0x01, 0xf4, 0x03, 0x01, 0x05,
  0xe0, 0x02, 0x09, 0x0e, 0x03, 0x04, 0xf0, 0xf4, 0xea, 0x0b, 0xfc, 0x01,
  0xfe, 0xf2, 0xfb, 0xfc, 0xfe, 0xff, 0xf7, 0x01, 0x0a, 0xf9, 0x12, 0x09,
  0xa8, 0x07, 0xf7, 0xff, 0x08, 0x10, 0x07, 0xf0, 0x00, 0xfe, 0x0c, 0xfa,
  0xfd, 0xf6, 0xfd, 0xfb, 0xf6, 0xef, 0x0b, 0x09, 0x04, 0x00, 0x06, 0xfe,
  0xec, 0x0d, 0x05, 0x09, 0x05, 0xf2, 0xee, 0xf2, 0xeb, 0x00, 0x06, 0xfa,
  0xf0, 0x0b, 0x03, 0xff, 0xf9, 0xf6, 0xf8, 0xfc, 0xf7, 0x08, 0x11, 0x09,
  0x98, 0x0c, 0xfb, 0xfe, 0x07, 0xfe, 0x06, 0xfa, 0x00, 0xfc, 0x05, 0x05,
  0xf5, 0xf6, 0xf4, 0xf7, 0xf4, 0xf6, 0x0c, 0x00, 0xff, 0xfe, 0x02, 0xfd,
  0xe4, 0x0f, 0xff, 0x01, 0x00, 0xf6, 0xf5, 0x05, 0xe8, 0x01, 0xfc, 0xfa,
  0xf8, 0xfd, 0x00, 0xff, 0xfa, 0x02, 0xfa, 0xfc, 0xf6, 0xfa, 0x10, 0x14,
  0x97, 0x0c, 0xf6, 0xf6, 0x0a, 0x12, 0xff, 0xf2, 0x0a, 0x05, 0x0c, 0x07,
  0x05, 0x05, 0xf9, 0xf1, 0xed, 0xee, 0x05, 0x09, 0xfb, 0x0c, 0xff, 0x0c,
  0xe6, 0x04, 0xff, 0x00, 0x05, 0xfc, 0xf4, 0xfb, 0xe1, 0x06, 0x01, 0x00,
  0xf0, 0xd0, 0x0b, 0xf6, 0xfd, 0x00, 0xf9, 0x01, 0x05, 0x08, 0x0b, 0x0d,
  0xa4, 0x05, 0xf9, 0xfd, 0xfd, 0x00, 0x09, 0xf4, 0x01, 0xfa, 0x0d, 0xfc,
  0xf2, 0x09, 0x01, 0xfe, 0xf7, 0xf1, 0xfe, 0x0a, 0xf3, 0x0d, 0xfe, 0x0d,
  0xe1, 0xfc, 0x03, 0x02, 0x05, 0xf7, 0xf1, 0xf8, 0xeb, 0x08, 0x06, 0xff,
  0xf0, 0x08, 0x08, 0xf9, 0xf8, 0xfe, 0xfe, 0x09, 0xfc, 0xfe, 0x05, 0x10,
  0x9a, 0x05, 0xe9, 0x05, 0x01, 0x13, 0xff, 0xf6, 0x10, 0x0d, 0x0f, 0x0a,
  0xf7, 0x04, 0xfa, 0xf8, 0xf2, 0xf8, 0x08, 0xfd, 0xf3, 0x03, 0xfd, 0x0e,
  0xf5, 0x02, 0xff, 0x05, 0xff, 0x02, 0xf1, 0x05, 0xf3, 0x0e, 0xf7, 0xfd,
  0xf4, 0x0e, 0xff, 0x02, 0xf6, 0xfa, 0xf8, 0xfd, 0x0b, 0x0a, 0x09, 0x01,
  0xa0, 0x07, 0xf7, 0x02, 0xfe, 0x0a, 0xff, 0xf1, 0x0f, 0xfd, 0x0f, 0xfb,
  0x07, 0xf9, 0x01, 0xf9, 0xf2, 0xf8, 0xfe, 0xfe, 0x04, 0x0c, 0x08, 0x0a,
  0xf0, 0xfc, 0x07, 0xff, 0xfa, 0xfe, 0xec, 0xfa, 0xf5, 0xfc, 0x04, 0x06,
  0xf7, 0xd5, 0x05, 0x02, 0x00, 0x01, 0xf9, 0x05, 0x05, 0xfb, 0x03, 0x05,
  0x9d, 0xfc, 0xf7, 0x01, 0xfc, 0x0f, 0x0c, 0xfb, 0x03, 0xff, 0x08, 0xfe,
  0xf4, 0x03, 0xfd, 0xff, 0xe7, 0xf1, 0x02, 0x05, 0x00, 0x0d, 0x02, 0xff,
  0xe9, 0x02, 0x08, 0x04, 0x08, 0xfe, 0xee, 0x03, 0xed, 0x07, 0x02, 0xff,
  0xf2, 0xfa, 0xfa, 0x02, 0xf9, 0xfe, 0xfc, 0x00, 0xf7, 0x06, 0x00, 0x03,
  0xa8, 0x06, 0xed, 0xfc, 0x08, 0x16, 0x12, 0xfd, 0x08, 0xfd, 0x04, 0x0d,
  0xfa, 0xfa, 0xf0, 0xf4, 0xf5, 0xf3, 0xfc, 0x03, 0x01, 0xfb, 0x0c, 0x09,
  0xe6, 0x0c, 0x08, 0x04, 0xfc, 0xfe, 0xf2, 0xfc, 0xeb, 0x04, 0x04, 0xf6,
  0xf4, 0x0e, 0x05, 0xfa, 0x01, 0x05, 0x08, 0x06, 0x07, 0xfd, 0xff, 0x0e,
  0xb0, 0x06, 0xf1, 0x07, 0x0c, 0x08, 0x08, 0x04, 0x05, 0x07, 0x02, 0xfe,
  0xf7, 0x00, 0xf9, 0xf0, 0xf9, 0xf0, 0x08, 0x0a, 0x0a, 0xfc, 0x0d, 0x0c,
  0xe9, 0x04, 0xfb, 0x0e, 0x01, 0x03, 0xe3, 0x00, 0xf4, 0x0e, 0x08, 0xf5,
  0xfb, 0xf8, 0x0b, 0xfb, 0xf9, 0x05, 0x00, 0x03, 0xfa, 0x10, 0x10, 0x03,
  0xab, 0x0d, 0xf4, 0x0f, 0xfb, 0x0a, 0x13, 0xff, 0xfe, 0x03, 0x02, 0x06,
  0xfb, 0xf9, 0x04, 0xf6, 0xf1, 0xeb, 0x05, 0xfb, 0x05, 0x05, 0x0d, 0x0b,
  0xf5, 0x10, 0x08, 0x07, 0x02, 0xf9, 0xf7, 0xf4, 0xef, 0xfc, 0x08, 0xf9,
  0xfb, 0xde, 0x05, 0x04, 0xff, 0xf4, 0xf5, 0x0a, 0xfe, 0x03, 0x0b, 0x04,
  0xb5, 0xff, 0xea, 0xfd, 0xfe, 0x0e, 0x0c, 0xf5, 0x0b, 0x09, 0x0f, 0xff,
  0xf9, 0xf6, 0x02, 0xfa, 0xf8, 0x00, 0x0c, 0xfa, 0x02, 0x01, 0x01, 0xf9,
  0xe5, 0x05, 0x12, 0x0f, 0xf9, 0x02, 0xf4, 0xf7, 0xef, 0x00, 0x07, 0x0a,
  0xfc, 0xe1, 0x0c, 0xf5, 0xf8, 0xf8, 0x07, 0xf7, 0x05, 0xfc, 0x0c, 0x10,
  0xa3, 0x0f, 0xfa, 0x04, 0xfb, 0x0f, 0xff, 0x00, 0x11, 0xff, 0xfd, 0xfe,
  0xf5, 0xfa, 0xfc, 0xf4, 0xe5, 0xfe, 0x0b, 0x01, 0xfb, 0x0a, 0x0b, 0x05,
  0xf5, 0xfb, 0xfe, 0x09, 0xfd, 0xf7, 0xe1, 0xf8, 0xe7, 0x01, 0xfd, 0xfa,
  0xf1, 0xfd, 0x0a, 0xfa, 0xfc, 0x07, 0xf8, 0xfe, 0xfb, 0x02, 0x04, 0x04,
  0xab, 0x05, 0xfb, 0x06, 0x07, 0x06, 0xff, 0x02, 0x04, 0x06, 0x0d, 0xff,
  0xfa, 0x03, 0x03, 0xf6, 0xeb, 0xf1, 0x0b, 0xfb, 0xfc, 0xfa, 0xff, 0x02,
  0xf2, 0xfd, 0x04, 0x13, 0x02, 0xf6, 0xfc, 0xf3, 0xe3, 0x02, 0x02, 0xfb,
  0xf6, 0x0c, 0xfe, 0xf7, 0xfb, 0xfd, 0xf2, 0x0a, 0xfe, 0x07, 0x0c, 0x09,
  0xa5, 0x08, 0xeb, 0x00, 0x02, 0xfd, 0x00, 0x06, 0x05, 0xfe, 0x0f, 0x04,
  0xfb, 0xfe, 0xf5, 0xff, 0xf5, 0xe6, 0x09, 0xf8, 0xf9, 0x00, 0xfd, 0x07,
  0xf7, 0x0a, 0x03, 0x08, 0x0c, 0xf8, 0xfb, 0x05, 0xf0, 0xfb, 0xfa, 0x00,
  0x00, 0x0f, 0xfb, 0x01, 0xf1, 0xf9, 0xfb, 0x02, 0x04, 0xfb, 0x03, 0x08,
  0xa9, 0x0f, 0xe7, 0xf1, 0x03, 0x0c, 0x00, 0x01, 0x00, 0xf9, 0x09, 0x01,
  0xfd, 0xf3, 0x04, 0xf0, 0xf8, 0xeb, 0x0b, 0x08, 0xfb, 0xff, 0x03, 0xfc,
  0xef, 0xff, 0x04, 0x12, 0xfc, 0x01, 0xef, 0x06, 0xe8, 0x03, 0x07, 0xfe,
  0xf2, 0xfd, 0x0b, 0x03, 0xf9, 0xf6, 0xf5, 0xf7, 0x07, 0x00, 0x0e, 0x0d,
  0xa4, 0x07, 0xfc, 0xfa, 0xff, 0x0a, 0x07, 0xf5, 0x0a, 0xfe, 0x0e, 0x03,
  0xf7, 0xf7, 0xf8, 0x02, 0xfb, 0xf4, 0xfb, 0xf9, 0x01, 0x07, 0xfa, 0x07,
  0xef, 0xfb, 0x0a, 0x14, 0x0a, 0xf9, 0xe8, 0x05, 0xe0, 0x09, 0xfd, 0xf8,
  0xfa, 0xf9, 0x07, 0x01, 0xfc, 0xf4, 0x01, 0xf7, 0x0a, 0x01, 0x02, 0x00,
  0x9a, 0x0a, 0xfa, 0x01, 0x0d, 0x10, 0x0f, 0xf9, 0x14, 0xfb, 0x08, 0x01,
  0x06, 0x03, 0x06, 0xf2, 0xf2, 0xf1, 0xfc, 0xfc, 0xf8, 0x08, 0x07, 0x02,
  0xfb, 0xff, 0xff, 0x09, 0x04, 0xff, 0xf6, 0xf8, 0xe9, 0xfc, 0xf5, 0xfc,
  0xf7, 0xe7, 0xfe, 0xfc, 0xf5, 0x01, 0xfd, 0xf5, 0xf9, 0xff, 0x0f, 0x09,
  0xa3, 0x10, 0xfc, 0x0e, 0x01, 0x12, 0xff, 0xfd, 0x04, 0xf9, 0xfe, 0xff,
  0xfd, 0xf8, 0xf5, 0x01, 0xec, 0xf1, 0x0a, 0x08, 0x05, 0x0a, 0x07, 0x0c,
  0xf0, 0x06, 0x0b, 0x00, 0x01, 0xf5, 0xec, 0xfa, 0xe4, 0x0b, 0xf4, 0xfd,
  0xf8, 0xc9, 0x0f, 0x05, 0x07, 0x06, 0xf9, 0xf3, 0x06, 0x0a, 0x09, 0x04,
  0xb0, 0x02, 0xf6, 0x01, 0xfd, 0x16, 0x05, 0xfb, 0x10, 0xfd, 0x0b, 0x06,
  0x01, 0xfe, 0xfe, 0xf5, 0xec, 0xff, 0x03, 0xfc, 0xf9, 0xf8, 0x04, 0xff,
  0xf7, 0x09, 0x05, 0x07, 0x06, 0xf7, 0xf7, 0x03, 0xee, 0x0a, 0xf4, 0xf9,
  0xf0, 0xf7, 0x04, 0xfe, 0xf5, 0x00, 0x0d, 0xf7, 0x01, 0x0f, 0x0c, 0xff,
  0xad, 0x0a, 0xf3, 0x08, 0xfb, 0x09, 0x06, 0xf6, 0x07, 0x03, 0x06, 0x07,
  0xf6, 0xf6, 0xf7, 0xf0, 0xf1, 0xfa, 0x04, 0xfb, 0x05, 0xfc, 0xf9, 0x0a,
  0xef, 0x0e, 0x03, 0x10, 0x0b, 0xf5, 0xf2, 0xf9, 0xed, 0xff, 0x03, 0xf7,
  0xfe, 0xf2, 0x06, 0xfc, 0xfb, 0x02, 0xf9, 0x03, 0x0a, 0x08, 0x04, 0x06,
  0xba, 0x08, 0xf7, 0x0c, 0x00, 0x00, 0x02, 0xf5, 0x0b, 0x05, 0x06, 0xff,
  0xfb, 0xf4, 0xf3, 0xf2, 0xf3, 0xf2, 0x04, 0xfd, 0xff, 0xff, 0x05, 0xfe,
  0xfc, 0xfc, 0x04, 0x0b, 0xfb, 0xf3, 0xf6, 0x05, 0xe5, 0x0e, 0xf5, 0xfb,
  0x02, 0xd8, 0x03, 0xf9, 0x08, 0xf9, 0xfd, 0x04, 0xfe, 0xfe, 0x0f, 0x05,
  0xa9, 0x05, 0xed, 0xfe, 0x06, 0x0a, 0x0e, 0x05, 0x0b, 0x08, 0x03, 0xfc,
  0xf9, 0xfe, 0xfc, 0xfc, 0xe9, 0xfa, 0xfd, 0xfc, 0xf4, 0xfb, 0x00, 0xff,
  0xf4, 0xfe, 0x15, 0x0c, 0x07, 0xf9, 0xeb, 0xff, 0xf6, 0xfe, 0xff, 0x03,
  0xfd, 0xfa, 0x0f, 0xf6, 0x06, 0xf8, 0xfe, 0xf9, 0x03, 0x0c, 0x00, 0x03,
  0xb9, 0xfe, 0xf9, 0xf9, 0x04, 0x05, 0x09, 0x04, 0x01, 0xfe, 0x04, 0x03,
  0xf6, 0xff, 0xf4, 0xfc, 0xf4, 0xec, 0xfe, 0x05, 0x07, 0x0c, 0x0a, 0x00,
  0xf7, 0x07, 0x13, 0x08, 0x0c, 0x05, 0xf9, 0x06, 0xf7, 0x0e, 0xf7, 0xfd,
  0xee, 0x06, 0x0e, 0xfd, 0xfe, 0x07, 0xf9, 0xfa, 0x03, 0x08, 0x0d, 0x01,
  0xb5, 0x0c, 0x01, 0x08, 0xfc, 0x14, 0x0a, 0xf1, 0x0f, 0x01, 0x06, 0xff,
  0x0b, 0x01, 0xf8, 0x01, 0xf4, 0xfb, 0x0c, 0x0d, 0xfb, 0x04, 0x01, 0x00,
  0xe6, 0x10, 0x05, 0x0f, 0xfb, 0xf4, 0xf1, 0x03, 0xf5, 0xfb, 0xf8, 0xf8,
  0xfd, 0x14, 0x0a, 0xfc, 0x08, 0x02, 0xff, 0x08, 0x04, 0x06, 0x08, 0x07,
  0x9f, 0x12, 0xfc, 0x11, 0x0a, 0x12, 0x00, 0x04, 0x05, 0x04, 0x11, 0xfa,
  0xfd, 0xfc, 0xf3, 0xf6, 0xf3, 0xf4, 0x0c, 0xfe, 0x05, 0x09, 0x04, 0x04,
  0xee, 0x0e, 0x09, 0x0e, 0xfa, 0x00, 0xf4, 0x06, 0xef, 0x08, 0x06, 0xfe,
  0xfd, 0xdd, 0x03, 0xfb, 0x0e, 0xf8, 0x02, 0x00, 0xfe, 0x05, 0x0b, 0x01,
  0x95, 0x02, 0xfd, 0x0a, 0x07, 0x10, 0x03, 0xf4, 0x00, 0x08, 0x05, 0x03,
  0x09, 0x00, 0x04, 0xf5, 0xf3, 0xfb, 0xfb, 0x09, 0xf5, 0x08, 0x08, 0xfa,
  0xf1, 0x0c, 0x0e, 0x07, 0x08, 0xfb, 0xf2, 0x06, 0xfa, 0x00, 0xf7, 0x02,
  0xfe, 0xce, 0x0d, 0xfc, 0x05, 0xfb, 0x07, 0x05, 0xfb, 0x0a, 0x03, 0x12,
  0xa1, 0x06, 0x05, 0x06, 0xfa, 0x0a, 0x06, 0x00, 0x03, 0x02, 0xff, 0x06,
  0xf9, 0xff, 0xf7, 0xf0, 0xea, 0xf3, 0xff, 0x00, 0x06, 0x07, 0xfa, 0xff,
  0xe1, 0x08, 0x0b, 0x0e, 0xfd, 0xf3, 0xe2, 0xfc, 0xf6, 0x05, 0xfa, 0x02,
  0xfe, 0xdd, 0x09, 0x02, 0x08, 0xfd, 0xf6, 0x01, 0xf6, 0x0b, 0x0f, 0x0e,
  0x9a, 0x0f, 0xf0, 0x1a, 0x00, 0x06, 0x01, 0xff, 0xff, 0x02, 0x0b, 0x08,
  0xff, 0x03, 0x02, 0xfb, 0xf0, 0x02, 0xf5, 0x0d, 0xff, 0x02, 0xfe, 0xf7,
  0xed, 0xf8, 0x1a, 0x09, 0xfe, 0x07, 0xf2, 0xf5, 0xf6, 0xff, 0xf9, 0xf5,
  0x03, 0xeb, 0x13, 0x02, 0x06, 0x0c, 0xf2, 0x08, 0xff, 0x07, 0x04, 0x08,
  0xa0, 0x0f, 0xe7, 0x10, 0x05, 0x0d, 0x0e, 0xf0, 0x0b, 0x0b, 0x11, 0x0b,
  0x04, 0xf9, 0x00, 0xef, 0xfe, 0x05, 0x00, 0x0b, 0x06, 0x03, 0xfb, 0xfe,
  0xed, 0x01, 0x13, 0x10, 0xff, 0xf9, 0xec, 0xf9, 0xf4, 0x06, 0xfb, 0x04,
  0x01, 0xe3, 0x12, 0x05, 0x0c, 0xfc, 0xf4, 0xfd, 0x00, 0x06, 0x09, 0x08,
  0x96, 0x09, 0xef, 0x02, 0x03, 0x08, 0x07, 0xfa, 0x04, 0xfc, 0x09, 0x09,
  0xfe, 0xf4, 0xfa, 0xf6, 0xf6, 0xfd, 0xfc, 0x0c, 0x01, 0x0c, 0xfa, 0xfa,
  0xe4, 0x07, 0x12, 0x01, 0x09, 0x03, 0xef, 0x00, 0xf1, 0xfd, 0xf8, 0xf8,
  0x01, 0xed, 0x09, 0xf3, 0xf9, 0x06, 0xfb, 0xf5, 0x06, 0x04, 0x09, 0x10,
  0xa3, 0x01, 0xfd, 0x0b, 0xf8, 0x02, 0x10, 0xf9, 0x13, 0xff, 0x06, 0x01,
  0x08, 0xf2, 0xf9, 0xf5, 0xfe, 0xf1, 0xf9, 0x0d, 0xf5, 0x09, 0xff, 0x09,
  0xe5, 0xf9, 0x04, 0x07, 0xf9, 0x00, 0xf3, 0xf5, 0xec, 0x08, 0x04, 0xfe,
  0xfb, 0xf5, 0x05, 0xfc, 0xff, 0x08, 0x0d, 0xfe, 0x05, 0xfb, 0x07, 0x08,
  0xad, 0x03, 0x00, 0x09, 0xf5, 0x05, 0x0f, 0xf4, 0x0d, 0xfd, 0x02, 0x05,
  0x11, 0xf3, 0x06, 0xf4, 0xf1, 0xf3, 0x09, 0x0b, 0x02, 0x0a, 0x08, 0x03,
  0xe1, 0xff, 0x00, 0x09, 0x05, 0xf6, 0xe6, 0xfb, 0xf4, 0x07, 0xfd, 0x04,
  0xf6, 0x05, 0x09, 0xf9, 0x09, 0x06, 0x0a, 0x00, 0x05, 0x0e, 0x07, 0x16,
  0xb0, 0x0a, 0xf1, 0x11, 0x06, 0x0d, 0x0b, 0x00, 0x0d, 0xff, 0x07, 0x00,
  0x09, 0xfd, 0xf8, 0xfb, 0xfc, 0xf6, 0x07, 0x0d, 0xfc, 0xfe, 0x04, 0xfd,
  0xe3, 0xfb, 0x05, 0x0d, 0xff, 0xf2, 0xea, 0x00, 0xee, 0x0c, 0xf6, 0xfb,
  0xf9, 0xfc, 0x03, 0xf6, 0x04, 0x05, 0xfe, 0x02, 0xfa, 0x07, 0x03, 0x0e,
  0xb1, 0x08, 0xef, 0x0e, 0x08, 0x0e, 0x07, 0xfa, 0x07, 0xf8, 0x0a, 0xfe,
  0x03, 0xf1, 0x03, 0xef, 0x00, 0xf0, 0x03, 0x0f, 0xf9, 0x06, 0x04, 0x09,
  0xe2, 0x01, 0x09, 0x13, 0x01, 0xf9, 0xe5, 0xf3, 0xfa, 0x08, 0xfd, 0xf9,
  0x02, 0xe3, 0x06, 0xfc, 0x06, 0xfb, 0x02, 0xf9, 0xff, 0x04, 0x0d, 0x09,
  0x9c, 0x02, 0xef, 0x14, 0xff, 0x0a, 0x0d, 0xfb, 0x05, 0xfe, 0x0d, 0x03,
  0x07, 0xfb, 0xff, 0xf4, 0x02, 0xf0, 0xfc, 0x0c, 0x05, 0x07, 0x03, 0x08,
  0xd6, 0xf8, 0x14, 0x12, 0x04, 0x07, 0xe8, 0xf3, 0xe8, 0x09, 0xff, 0xf4,
  0x05, 0xde, 0x0c, 0x05, 0x00, 0xfb, 0xfe, 0x03, 0xfd, 0xfd, 0x00, 0x0e,
  0xa9, 0x0a, 0xe6, 0xfe, 0xf5, 0x0a, 0x0b, 0xfc, 0x0d, 0x07, 0x0e, 0xfe,
  0xf7, 0xf4, 0x00, 0xee, 0xff, 0xf1, 0x05, 0x0e, 0x03, 0x09, 0x0a, 0x01,
  0xe0, 0x04, 0x0b, 0x05, 0xfa, 0xf8, 0xeb, 0xf5, 0xeb, 0xff, 0x01, 0xf7,
  0xf5, 0xdf, 0x0d, 0xfa, 0x09, 0x07, 0x00, 0x00, 0xfd, 0x02, 0xff, 0x13,
  0x8f, 0x01, 0xee, 0xfe, 0x03, 0x12, 0x06, 0xfa, 0x03, 0xf8, 0x15, 0x03,
  0xfd, 0xfd, 0xfc, 0xeb, 0xf1, 0xe8, 0xf5, 0x04, 0x00, 0xfe, 0x02, 0x0b,
  0xe3, 0xfc, 0x00, 0x0d, 0xfb, 0xf8, 0xeb, 0x04, 0xe4, 0x02, 0xfc, 0xf4,
  0xf7, 0xf5, 0xfa, 0xf5, 0x0a, 0xff, 0xff, 0xfc, 0x04, 0xfe, 0x02, 0x11,
  0xa3, 0x0e, 0xf4, 0xff, 0xfb, 0x0e, 0x07, 0xe8, 0x13, 0xfe, 0x12, 0xfb,
  0x01, 0xf5, 0xff, 0xfa, 0xf9, 0xe3, 0xf7, 0x03, 0x00, 0x07, 0x01, 0x07,
  0xd6, 0xf7, 0x04, 0x10, 0x04, 0xfc, 0xe4, 0xf8, 0xe7, 0x0e, 0xf3, 0x01,
  0xf8, 0x01, 0x0c, 0xf8, 0x07, 0xfb, 0xf8, 0xf9, 0xf9, 0x0a, 0x03, 0x1c,
  0x91, 0x0d, 0xf8, 0x0b, 0x03, 0x15, 0x10, 0xf3, 0x08, 0x06, 0x17, 0x07,
  0xfa, 0xfd, 0xf9, 0xea, 0xf8, 0xe3, 0xff, 0x13, 0xfd, 0x01, 0x03, 0x07,
  0xcf, 0x00, 0x09, 0x0e, 0xfd, 0xfa, 0xe0, 0xf5, 0xef, 0x04, 0x04, 0xf8,
  0xfe, 0xc6, 0x0e, 0xfa, 0xff, 0xf8, 0xf4, 0x09, 0xf9, 0x05, 0x08, 0x08,
  0x93, 0xfd, 0xee, 0x02, 0xf3, 0x0d, 0x0f, 0xed, 0x0d, 0xf8, 0x06, 0xfe,
  0xef, 0x00, 0x00, 0xef, 0xf6, 0xec, 0x00, 0x11, 0xfa, 0xff, 0x09, 0xff,
  0xd7, 0x02, 0x07, 0x10, 0xf8, 0xf8, 0xe7, 0x03, 0xed, 0x07, 0xf8, 0x03,
  0x00, 0xc9, 0xfe, 0xf7, 0xff, 0x05, 0x05, 0x08, 0x07, 0xff, 0x03, 0x17,
  0x90, 0x0e, 0xf9, 0x02, 0xf8, 0x0a, 0x0c, 0xe8, 0x05, 0xf9, 0x11, 0xfd,
  0xf9, 0xef, 0xf4, 0xeb, 0xe9, 0xde, 0xf6, 0x03, 0xfd, 0xf9, 0xfe, 0x01,
  0xe0, 0x00, 0x04, 0x05, 0xf7, 0xf1, 0xe5, 0x01, 0xe9, 0x02, 0x09, 0xf5,
  0xfd, 0xf5, 0xfb, 0xf6, 0x09, 0x08, 0xf0, 0x0d, 0xf6, 0xff, 0x05, 0x08,
  0x90, 0x02, 0xf4, 0x01, 0xfb, 0x0d, 0x0a, 0xe7, 0x0c, 0xf7, 0x0d, 0x02,
  0xee, 0xed, 0xf5, 0xf4, 0x02, 0xf6, 0xf8, 0x01, 0x05, 0xff, 0xf8, 0x02,
  0xdb, 0xfc, 0xfa, 0x07, 0xf8, 0xf7, 0xe1, 0xf8, 0xe0, 0x11, 0xfb, 0xfe,
  0xf7, 0xef, 0x0c, 0x09, 0x01, 0x0c, 0xfe, 0x05, 0x0c, 0xfd, 0x07, 0x09,
  0x91, 0x0e, 0xfc, 0xf0, 0x03, 0x24, 0xfc, 0xff, 0x06, 0xfe, 0x0f, 0x0b,
  0x07, 0x00, 0xf0, 0xf5, 0x05, 0x10, 0x04, 0x05, 0x07, 0x09, 0x03, 0x08,
  0xec, 0x08, 0x05, 0x03, 0xf7, 0xf9, 0x02, 0x09, 0xfb, 0xf9, 0xf0, 0xf7,
  0x08, 0x00, 0xfd, 0xfb, 0x0f, 0xff, 0xef, 0x0f, 0xfc, 0x0c, 0xf3, 0x02,
  0xbb, 0x00, 0xff, 0x07, 0xfc, 0x0a, 0xf8, 0x09, 0x0b, 0x04, 0x01, 0x0a,
  0x07, 0x09, 0x06, 0xdf, 0x0c, 0xf6, 0xfa, 0x07, 0xf9, 0x05, 0xf7, 0x0b,
  0xe9, 0xfa, 0x09, 0xff, 0xf9, 0xfa, 0xdf, 0xf8, 0xfe, 0x0a, 0xff, 0x07,
  0x05, 0x0b, 0xf7, 0xf4, 0xfa, 0xf9, 0xf8, 0x03, 0x09, 0x02, 0xf6, 0x03,
  0x9e, 0xfe, 0xf6, 0xfd, 0xf7, 0x10, 0xf8, 0x05, 0x00, 0xfb, 0x02, 0x01,
  0x07, 0xf8, 0x07, 0xda, 0x0c, 0xfa, 0x00, 0x10, 0x09, 0x00, 0xf4, 0x0f,
  0xe5, 0xfb, 0x09, 0x04, 0x02, 0xfa, 0xdb, 0x07, 0x00, 0xff, 0xf1, 0x00,
  0x07, 0x07, 0xf7, 0xf9, 0xfd, 0xfd, 0x05, 0x0e, 0x03, 0x08, 0xfe, 0x00,
  0xa3, 0x0e, 0xff, 0x02, 0xff, 0x10, 0x08, 0x02, 0x07, 0x00, 0x11, 0x05,
  0x0c, 0xf9, 0x05, 0xed, 0x0c, 0x01, 0xfd, 0xfe, 0x00, 0x00, 0xf7, 0xfd,
  0xf5, 0x01, 0x07, 0x00, 0x01, 0xfa, 0xe1, 0x00, 0x00, 0x07, 0xf1, 0x0d,
  0xf8, 0x03, 0xf7, 0xf1, 0xfc, 0xf2, 0x02, 0xfd, 0xfd, 0x02, 0xf0, 0x0b,
  0xa6, 0x0b, 0xef, 0x08, 0x05, 0x03, 0x05, 0xfd, 0x01, 0x0c, 0x0c, 0xfc,
  0x01, 0xf6, 0xff, 0xe3, 0xff, 0x05, 0x09, 0x00, 0x00, 0x05, 0x06, 0xfe,
  0xee, 0x06, 0x0b, 0x01, 0xf2, 0x00, 0xe9, 0x03, 0xf2, 0xfd, 0xf5, 0xfa,
  0xfa, 0xf5, 0x01, 0x01, 0xff, 0xf7, 0xfa, 0x0b, 0x01, 0x03, 0xf9, 0x03,
  0xb3, 0x0e, 0xf0, 0x01, 0x05, 0x0a, 0xff, 0x05, 0xff, 0x0b, 0x0a, 0xfb,
  0x04, 0xf4, 0x07, 0xf4, 0xfc, 0x08, 0x01, 0x00, 0xfc, 0x0d, 0x06, 0x06,
  0xf2, 0xff, 0x04, 0x0e, 0xfc, 0x05, 0xe0, 0xfa, 0x05, 0xfa, 0xf5, 0x09,
  0x04, 0xf4, 0x05, 0xfd, 0xfb, 0x01, 0xff, 0x01, 0x06, 0xf8, 0xfd, 0xf7,
  0xaf, 0x05, 0xf1, 0x07, 0xff, 0x08, 0x0c, 0xf5, 0xfb, 0x03, 0x0f, 0x00,
  0x09, 0xff, 0x07, 0xf2, 0xfd, 0x04, 0x0b, 0x05, 0xfb, 0x11, 0x03, 0x00,
  0xdf, 0x03, 0x01, 0x0a, 0xfa, 0x06, 0xdb, 0xfa, 0x04, 0xf9, 0xf8, 0xfc,
  0xff, 0xfd, 0x00, 0xfc, 0x03, 0xf0, 0xfc, 0xfc, 0x0d, 0x05, 0xf5, 0x02,
  0xb0, 0x0b, 0xfe, 0x0b, 0xfe, 0x00, 0x00, 0xf7, 0x03, 0x0c, 0xfd, 0x05,
  0x06, 0xfc, 0xfd, 0xf4, 0x06, 0xf9, 0xfc, 0xfe, 0x0e, 0x0d, 0xfc, 0x02,
  0xec, 0xf9, 0x07, 0x05, 0xf5, 0x04, 0xd1, 0xf6, 0x00, 0x09, 0x03, 0x04,
  0x03, 0x00, 0x06, 0xf4, 0x00, 0xfe, 0xfe, 0x01, 0xfc, 0xfc, 0xfe, 0x0a,
  0xa9, 0x0b, 0x00, 0x07, 0xfa, 0xff, 0x0e, 0xfe, 0x0b, 0x05, 0xff, 0xfc,
  0x0d, 0x04, 0x04, 0xe9, 0x06, 0xfa, 0x07, 0x0d, 0x09, 0xfc, 0xf5, 0x07,
  0xe8, 0x03, 0xfd, 0x0e, 0xf6, 0xfa, 0xe5, 0xff, 0xfa, 0xfc, 0xf4, 0x05,
  0xf7, 0xfa, 0xf9, 0xfb, 0x09, 0xfc, 0x02, 0x07, 0x01, 0x04, 0x03, 0x04,
  0xb5, 0xfe, 0xfd, 0xfc, 0x06, 0xf8, 0x08, 0x03, 0x09, 0x08, 0x08, 0x05,
  0x01, 0xf6, 0x07, 0xfa, 0x08, 0x03, 0x04, 0x01, 0x04, 0xfd, 0x08, 0x00,
  0xdc, 0xfc, 0x09, 0x0a, 0x02, 0xf3, 0xdf, 0xfc, 0xfd, 0x0f, 0xf5, 0xf9,
  0x01, 0xf4, 0x02, 0xf8, 0xff, 0xf7, 0xfb, 0xfc, 0xf7, 0x0d, 0xf3, 0xf8,
  0xb6, 0x00, 0x01, 0x01, 0xf1, 0x05, 0x05, 0xfe, 0x0a, 0xff, 0x04, 0x05,
  0xfc, 0x09, 0xff, 0xe9, 0xff, 0x0b, 0x08, 0x07, 0x0a, 0x01, 0xff, 0x0c,
  0xeb, 0xfd, 0x06, 0x03, 0xff, 0x03, 0xe7, 0xf0, 0xfe, 0x0d, 0x01, 0xfb,
  0xfb, 0x07, 0x04, 0x01, 0xfc, 0x05, 0xf6, 0xfa, 0x00, 0x03, 0x01, 0x05,
  0xae, 0x04, 0x00, 0x05, 0x00, 0x0e, 0x02, 0x02, 0xfa, 0x04, 0x0a, 0x0c,
  0x03, 0xfb, 0xfa, 0xec, 0x06, 0x01, 0x09, 0xfe, 0x05, 0x0b, 0x03, 0x07,
  0xec, 0x06, 0x05, 0x10, 0x00, 0xf8, 0xe3, 0x01, 0xf7, 0x06, 0x01, 0x01,
  0xf6, 0xf4, 0x00, 0x00, 0x08, 0xfe, 0xf8, 0xff, 0x0d, 0x07, 0xfa, 0xfd,
  0xab, 0xf7, 0xff, 0x01, 0x09, 0xfd, 0xf7, 0x06, 0x08, 0x02, 0x08, 0x04,
  0x0a, 0x04, 0x03, 0xf5, 0x09, 0x0a, 0x06, 0x02, 0x02, 0x01, 0x04, 0xfd,
  0xe9, 0x05, 0xfb, 0x08, 0xf7, 0xfc, 0xdd, 0x03, 0x00, 0xfe, 0xf6, 0xfb,
  0x08, 0xf7, 0x04, 0xff, 0x08, 0x05, 0xfe, 0xfb, 0xf8, 0x0a, 0xfd, 0x01,
  0xb3, 0xfa, 0xf5, 0xfc, 0x03, 0x0a, 0xfe, 0x0d, 0x04, 0x0b, 0x0e, 0x08,
  0x06, 0x04, 0xf8, 0xe7, 0xfc, 0x02, 0xff, 0xfd, 0xfb, 0x05, 0xfc, 0x0b,
  0xe8, 0xf8, 0xf8, 0x0e, 0x07, 0xff, 0xdb, 0xff, 0xfc, 0x00, 0xfb, 0xf9,
  0xfa, 0xfd, 0x09, 0x02, 0xfb, 0xf7, 0xf1, 0x0a, 0x07, 0x0e, 0xf8, 0x06,
  0xad, 0xfe, 0x00, 0x02, 0x01, 0x10, 0x0d, 0xfb, 0x07, 0xfc, 0x09, 0x0a,
  0x09, 0x09, 0xff, 0xe7, 0x09, 0xfc, 0x08, 0xfe, 0xfa, 0x02, 0xf9, 0x05,
  0xeb, 0xf6, 0x06, 0x02, 0x00, 0x06, 0xde, 0xfa, 0x01, 0x08, 0xfc, 0x0b,
  0xf7, 0x0d, 0xfa, 0xf3, 0x01, 0x02, 0xf6, 0xff, 0x08, 0xfb, 0xef, 0x05,
  0xb7, 0xfc, 0xef, 0x07, 0xff, 0x0a, 0x06, 0xfe, 0xfe, 0xfb, 0xfd, 0xff,
  0x0b, 0x08, 0x03, 0xfc, 0xfc, 0x03, 0x05, 0x04, 0xfe, 0x01, 0xfd, 0x05,
  0xed, 0xf5, 0x04, 0xfd, 0x02, 0xf6, 0xda, 0x03, 0x04, 0x05, 0xf9, 0xff,
  0x06, 0xf7, 0x01, 0xfa, 0x05, 0xf6, 0x03, 0x01, 0x03, 0x0d, 0xf9, 0xfe,
  0xc6, 0x08, 0x03, 0x0b, 0xfc, 0x03, 0x0c, 0xfa, 0x09, 0x01, 0x08, 0xff,
  0xf8, 0xff, 0xfa, 0xf8, 0x03, 0x05, 0x04, 0xf9, 0x06, 0x04, 0xfa, 0xfe,
  0xf7, 0x02, 0x00, 0x00, 0x02, 0xf8, 0xe1, 0x02, 0x01, 0x02, 0x00, 0xfa,
  0x05, 0xf9, 0x04, 0xf3, 0x0b, 0xfa, 0xfe, 0x02, 0x0a, 0x0b, 0xfd, 0x07,
  0xc8, 0x0e, 0x02, 0x0a, 0xfe, 0x09, 0x02, 0x04, 0x0c, 0x00, 0x0d, 0xfb,
  0x04, 0xfa, 0x07, 0xf3, 0xfb, 0x07, 0x07, 0x09, 0x01, 0x09, 0xf8, 0x0a,
  0xee, 0x00, 0x02, 0xfc, 0xfa, 0x01, 0xe3, 0xf9, 0xf3, 0x02, 0xef, 0x03,
  0x0a, 0xfb, 0x08, 0xf6, 0xf5, 0xf4, 0xfd, 0xf3, 0x04, 0x07, 0xec, 0xf9,
  0xb6, 0xff, 0xfc, 0xf9, 0xf7, 0x06, 0x04, 0x01, 0x01, 0x01, 0x0d, 0x05,
  0x00, 0x02, 0xfe, 0xe9, 0xfb, 0x00, 0xfb, 0xfc, 0x05, 0x10, 0xf6, 0x05,
  0xed, 0x00, 0xfe, 0x03, 0x00, 0x02, 0xd8, 0xf3, 0xf6, 0x0c, 0xf2, 0xfa,
  0x05, 0x07, 0x09, 0xf8, 0x03, 0xf8, 0x03, 0xfd, 0xfa, 0xfe, 0x00, 0xfb,
  0xab, 0x00, 0xfb, 0xff, 0xf9, 0xfd, 0x0a, 0x07, 0x0a, 0x03, 0x0b, 0x0a,
  0x05, 0xff, 0xf8, 0xea, 0x07, 0x09, 0x01, 0xfa, 0x0b, 0xfc, 0xf8, 0xf9,
  0xec, 0x09, 0x02, 0x11, 0xf8, 0xff, 0xe9, 0x03, 0xf4, 0x0b, 0xff, 0xfa,
  0xf7, 0x08, 0x04, 0xfb, 0x00, 0x05, 0x03, 0xfd, 0xfc, 0x0a, 0xf4, 0x02,
  0xc2, 0xfc, 0x01, 0x03, 0x00, 0xf3, 0xfe, 0x0b, 0x05, 0x03, 0x06, 0xff,
  0x00, 0xf8, 0xf9, 0xf7, 0xfb, 0xfd, 0x02, 0xfa, 0xfa, 0x08, 0x01, 0x0b,
  0xf1, 0xfb, 0x0d, 0x0b, 0xfa, 0xfe, 0xdf, 0x05, 0xfe, 0xfe, 0xf0, 0x01,
  0x01, 0xf8, 0xf6, 0x06, 0xfd, 0xf4, 0x01, 0x0a, 0x01, 0x00, 0xf5, 0xfd,
  0xbf, 0x0b, 0xf2, 0xfe, 0xfe, 0x06, 0xff, 0xf8, 0x04, 0x03, 0x06, 0xfe,
  0xfc, 0x01, 0x01, 0xf8, 0xfa, 0x02, 0xfe, 0x02, 0x11, 0x07, 0x01, 0xf8,
  0xf5, 0xf5, 0x11, 0xff, 0xf7, 0x05, 0xd8, 0xf6, 0xf9, 0x00, 0xff, 0xfb,
  0xf7, 0x04, 0x0a, 0x05, 0x04, 0xfe, 0xf0, 0xfd, 0x0a, 0x0a, 0xf2, 0x11,
  0xba, 0x09, 0x00, 0x01, 0x06, 0xf9, 0x01, 0xf6, 0x0d, 0x06, 0x0e, 0xf7,
  0x07, 0x07, 0x0a, 0xef, 0x01, 0x00, 0x04, 0x06, 0x02, 0x0d, 0x08, 0xf8,
  0xeb, 0xfd, 0x0a, 0x04, 0xfb, 0x00, 0xe3, 0x05, 0x03, 0x01, 0xfd, 0xff,
  0xf9, 0x03, 0xfc, 0xfe, 0x04, 0xf8, 0x05, 0xfa, 0x02, 0xfd, 0xf7, 0x0a,
  0xb7, 0x06, 0x06, 0x0b, 0x01, 0xf8, 0x04, 0xf7, 0xfc, 0x03, 0x08, 0x08,
  0x05, 0xfe, 0xf9, 0xf6, 0x04, 0x03, 0xfb, 0xfa, 0x12, 0x07, 0x04, 0x08,
  0xf3, 0xf9, 0x0b, 0x00, 0xf4, 0x05, 0xdf, 0x03, 0xf8, 0xfa, 0xfe, 0x01,
  0x01, 0xf8, 0xfb, 0xfe, 0x05, 0x01, 0xf5, 0xfc, 0xff, 0xff, 0x09, 0xff,
  0xc2, 0x0c, 0xf5, 0x06, 0x02, 0x01, 0xff, 0xf6, 0xfe, 0x0b, 0x0c, 0xf8,
  0x01, 0xfe, 0xfa, 0xef, 0xf9, 0x04, 0x01, 0xfd, 0x05, 0xfe, 0x03, 0xf8,
  0xfb, 0x00, 0x0e, 0x05, 0x01, 0xfd, 0xe1, 0x0c, 0xf4, 0x0d, 0xfc, 0x02,
  0x01, 0xeb, 0x0a, 0xfe, 0x0e, 0x09, 0xf0, 0x07, 0xfc, 0x07, 0xff, 0xfd,
  0xc7, 0x06, 0xfd, 0x0b, 0xf9, 0x00, 0xfb, 0xf8, 0xfe, 0xfd, 0x12, 0xfb,
  0x04, 0x03, 0xfd, 0xee, 0xfe, 0x08, 0x0d, 0xfb, 0x05, 0x00, 0x07, 0x00,
  0xf4, 0xf8, 0x0e, 0xfb, 0xf5, 0xf4, 0xe9, 0xfe, 0xf4, 0x0a, 0xf8, 0x02,
  0xf7, 0x04, 0x07, 0x01, 0xfa, 0x07, 0x01, 0xfd, 0x0b, 0x0a, 0xf6, 0x04,
  0xcd, 0x0b, 0xff, 0xfc, 0xf5, 0x03, 0x03, 0x01, 0xfa, 0x05, 0x0b, 0xfa,
  0x0c, 0xf3, 0xf8, 0xf9, 0x08, 0x06, 0x03, 0x00, 0xff, 0x0b, 0xf9, 0xfd,
  0xef, 0xfe, 0x0a, 0x02, 0xfe, 0x07, 0xe9, 0xfc, 0xfc, 0x04, 0xfa, 0x0a,
  0x03, 0xf8, 0xfb, 0x01, 0xff, 0x02, 0xf2, 0xfe, 0x07, 0x05, 0xf3, 0x03,
  0xcf, 0x02, 0xf6, 0x02, 0x09, 0xf8, 0x00, 0xf7, 0x0b, 0x07, 0x06, 0x0a,
  0x07, 0xfd, 0xfd, 0xfc, 0xfc, 0x05, 0x0c, 0xfd, 0x03, 0x00, 0x0d, 0x00,
  0xe5, 0x00, 0x13, 0x08, 0xf9, 0x07, 0xea, 0xf8, 0xfc, 0x00, 0xf6, 0x08,
  0xff, 0xf2, 0x03, 0x03, 0x04, 0xf8, 0xfe, 0x08, 0x07, 0x05, 0x02, 0xfd,
  0xad, 0x09, 0xfd, 0x0b, 0x0a, 0x0d, 0x0b, 0xf8, 0xfe, 0xfc, 0x01, 0x02,
  0xfe, 0x00, 0xf6, 0x00, 0xf9, 0x00, 0x00, 0x01, 0xf9, 0x15, 0x04, 0xfd,
  0xef, 0xfd, 0x03, 0x0e, 0xf5, 0x06, 0xdb, 0x06, 0x00, 0x09, 0x00, 0x01,
  0x05, 0xf6, 0x0a, 0x05, 0x09, 0x09, 0xf4, 0xfa, 0x03, 0xfd, 0x09, 0xfc,
  0xc5, 0x0b, 0xfb, 0x08, 0xf8, 0x04, 0x01, 0xfc, 0xfd, 0x08, 0x10, 0x05,
  0xfe, 0xfe, 0xfb, 0xfe, 0xfc, 0x04, 0x00, 0x07, 0x0a, 0x02, 0xf8, 0x06,
  0xf4, 0x06, 0x03, 0xfe, 0xf2, 0xf6, 0xec, 0x02, 0xf7, 0x0a, 0xfd, 0x0a,
  0x01, 0xf7, 0x00, 0xf5, 0xfe, 0xf6, 0x01, 0x0c, 0x06, 0x06, 0xff, 0x04,
  0xcb, 0x0e, 0x01, 0x09, 0x0b, 0xfb, 0xff, 0xfe, 0xff, 0x0a, 0x05, 0xfc,
  0x08, 0x04, 0x00, 0xf1, 0xfd, 0x00, 0x0d, 0xf6, 0x06, 0x0c, 0xfb, 0x04,
  0xea, 0x01, 0xfb, 0x05, 0xfb, 0xf6, 0xe7, 0x06, 0x04, 0x01, 0xfc, 0xf9,
  0xfe, 0x09, 0x06, 0xfb, 0x07, 0x04, 0xfb, 0x07, 0x0a, 0x02, 0xfe, 0xfb,
  0xc1, 0x10, 0x06, 0x04, 0x01, 0x05, 0x01, 0x05, 0xfd, 0xfd, 0x08, 0x0a,
  0xfb, 0x06, 0xfa, 0xff, 0x02, 0x02, 0x05, 0x02, 0x04, 0x12, 0xfa, 0xfc,
  0xee, 0x06, 0x03, 0x0d, 0xf6, 0xff, 0xe1, 0xf9, 0x01, 0xfb, 0x00, 0x02,
  0xff, 0xf1, 0xfa, 0xf8, 0x0a, 0x08, 0xfe, 0xfc, 0x04, 0x04, 0xed, 0xfc,
  0xc2, 0x04, 0x02, 0xfb, 0xf8, 0x0a, 0x07, 0x00, 0x09, 0x03, 0x04, 0x05,
  0x06, 0x05, 0x09, 0xf9, 0x03, 0x06, 0xfb, 0xfd, 0x05, 0x0d, 0xff, 0xfa,
  0xe3, 0x07, 0x08, 0x0d, 0xf7, 0x06, 0xd2, 0xfa, 0xfc, 0xfc, 0x02, 0xfc,
  0xf8, 0xed, 0xf9, 0xf6, 0xff, 0x03, 0xfe, 0xf9, 0x0b, 0x0c, 0x01, 0xfe,
  0xb5, 0x07, 0x03, 0x0c, 0x01, 0x07, 0x01, 0xfa, 0xfe, 0x05, 0x00, 0xf9,
  0xfd, 0x06, 0x06, 0xf3, 0x09, 0x09, 0x01, 0x00, 0x04, 0x0b, 0xf9, 0x01,
  0xe7, 0xf9, 0x10, 0x07, 0x01, 0x07, 0xde, 0xfa, 0xf8, 0xfc, 0xf3, 0x00,
  0x05, 0xef, 0x0c, 0x02, 0x0e, 0xf8, 0xfa, 0x0f, 0xff, 0x00, 0xf8, 0x0c,
  0xb0, 0x0d, 0x02, 0x06, 0xfe, 0x05, 0xfe, 0x08, 0xf8, 0x01, 0xff, 0xf8,
  0x0d, 0x08, 0xfa, 0xeb, 0x02, 0xff, 0x00, 0x0a, 0x00, 0x03, 0x01, 0xf6,
  0xf3, 0x03, 0x0c, 0x08, 0x00, 0x09, 0xe6, 0x07, 0xff, 0x06, 0x05, 0x09,
  0x03, 0xfe, 0x00, 0xf8, 0x09, 0xfa, 0xff, 0x0d, 0x11, 0x09, 0xf7, 0xff,
  0xba, 0x04, 0x02, 0x0c, 0x07, 0x02, 0x06, 0xf9, 0x02, 0x00, 0x06, 0x02,
  0xfe, 0x00, 0xfc, 0xf8, 0x03, 0xf8, 0xf7, 0x09, 0x01, 0x0d, 0xfd, 0x03,
  0xe9, 0xf5, 0x00, 0x06, 0x00, 0x00, 0xd8, 0x01, 0xf2, 0x0d, 0x05, 0x00,
  0xfe, 0xeb, 0xf9, 0xfc, 0xfe, 0xf7, 0xf6, 0x06, 0x07, 0x03, 0x06, 0x0d,
  0xaa, 0x03, 0xfc, 0x03, 0xfc, 0x05, 0x03, 0xfd, 0xfb, 0xfd, 0x0a, 0x07,
  0x0b, 0xfc, 0x01, 0xfe, 0xf9, 0xf6, 0x0a, 0x0a, 0x07, 0x05, 0xfc, 0x06,
  0xe7, 0x07, 0x08, 0x04, 0xfa, 0x00, 0xe4, 0xf2, 0xfb, 0x08, 0xf8, 0xf6,
  0xfd, 0xfd, 0xf7, 0x01, 0x03, 0x07, 0xf5, 0x01, 0x09, 0x00, 0xf5, 0x03,
  0xad, 0x06, 0xf8, 0xfe, 0xfd, 0xff, 0x09, 0x01, 0x09, 0xfc, 0x00, 0x03,
  0x02, 0x03, 0xf7, 0xeb, 0x02, 0xf4, 0x01, 0x0b, 0x05, 0x00, 0x01, 0xfc,
  0xe5, 0x02, 0xfc, 0x00, 0xf4, 0x00, 0xe0, 0x06, 0xf9, 0x08, 0xf4, 0xff,
  0x00, 0x07, 0xfb, 0x03, 0x09, 0xfc, 0xfa, 0xfb, 0x06, 0x08, 0xfc, 0xfc,
  0xb8, 0xfe, 0xf7, 0x02, 0xfc, 0xfa, 0x09, 0xf7, 0x05, 0xfc, 0x0e, 0xf8,
  0x06, 0xf7, 0x00, 0xe7, 0xf8, 0xfd, 0x08, 0x09, 0x05, 0x02, 0x03, 0x00,
  0xe6, 0xfa, 0x05, 0x0b, 0xf6, 0xf3, 0xe1, 0x07, 0xf7, 0x01, 0xf9, 0x01,
  0xfe, 0xfe, 0xf8, 0x05, 0xfd, 0xf3, 0xfd, 0x04, 0x0f, 0x0f, 0xf6, 0xf9,
  0xbe, 0x11, 0xf0, 0x08, 0xfb, 0x0a, 0x0f, 0xfb, 0xfc, 0xf8, 0xfa, 0x00,
  0x05, 0x06, 0xfb, 0xfd, 0x08, 0xfd, 0x06, 0x0a, 0x07, 0x03, 0xf3, 0xfd,
  0xe7, 0x0a, 0x09, 0x03, 0xfb, 0xf4, 0xe2, 0xf8, 0xf2, 0x0e, 0xfa, 0xfb,
  0xf7, 0xf6, 0x06, 0x00, 0xfd, 0xfc, 0xf2, 0x0d, 0x12, 0x00, 0xf0, 0x02,
  0xaf, 0x0e, 0xf7, 0x0c, 0x02, 0xfd, 0x0c, 0x08, 0x06, 0xfb, 0xfe, 0x04,
  0x0e, 0x06, 0xfb, 0xfb, 0xfe, 0xf6, 0x0f, 0xfb, 0xfd, 0x0b, 0xfb, 0x0c,
  0xeb, 0x01, 0x12, 0x03, 0x06, 0xf9, 0xe3, 0xf3, 0x00, 0x0e, 0xf6, 0xfa,
  0x04, 0xf4, 0x00, 0x05, 0x03, 0xf3, 0xf4, 0xfc, 0x12, 0x04, 0x03, 0x06,
  0xbd, 0x00, 0x00, 0x0d, 0x09, 0xf8, 0x0c, 0x03, 0x04, 0x09, 0x05, 0xfd,
  0x06, 0x02, 0xfc, 0xe5, 0x03, 0xfa, 0x0b, 0x02, 0x07, 0x0c, 0xfc, 0x0b,
  0xe7, 0xf9, 0x03, 0x01, 0xf7, 0x03, 0xe9, 0x05, 0xf2, 0x09, 0x01, 0x09,
  0x02, 0xfc, 0xfc, 0x06, 0x07, 0x03, 0xf4, 0x0e, 0x10, 0xfb, 0xfc, 0x10,
  0xc9, 0xfd, 0xf1, 0x09, 0xff, 0x03, 0x08, 0x06, 0x09, 0xfe, 0x0e, 0x07,
  0xfe, 0x01, 0xfc, 0xf7, 0x04, 0x05, 0x0a, 0x06, 0x00, 0xff, 0xf9, 0xfd,
  0xeb, 0xfb, 0x01, 0x08, 0x03, 0x02, 0xe2, 0x05, 0xff, 0xfd, 0xfb, 0xfc,
  0x04, 0x03, 0xff, 0x02, 0x08, 0xf4, 0xf9, 0x01, 0x0f, 0xfa, 0xf4, 0x04,
  0xc6, 0x0f, 0xfc, 0xff, 0x09, 0x04, 0x0d, 0x05, 0xfc, 0xfc, 0x00, 0x02,
  0x01, 0xf2, 0xfc, 0xee, 0x05, 0xfd, 0x01, 0xfa, 0x01, 0xfc, 0x04, 0x0e,
  0xf3, 0x07, 0xf6, 0x0f, 0x01, 0x00, 0xee, 0x05, 0xfd, 0x00, 0x03, 0x02,
  0xfa, 0x03, 0x05, 0xf4, 0x04, 0xf0, 0x0e, 0x04, 0x0a, 0xfd, 0xfc, 0xfe,
  0xc1, 0x05, 0xf4, 0xf6, 0x09, 0x09, 0x00, 0x0a, 0x02, 0x02, 0x0c, 0x08,
  0x00, 0x02, 0x04, 0xec, 0xf8, 0xff, 0x02, 0x02, 0x0e, 0xff, 0x00, 0xfb,
  0xf6, 0x09, 0x05, 0xfc, 0x04, 0x03, 0xd8, 0x07, 0xf7, 0x03, 0x06, 0x08,
  0x01, 0xff, 0xfb, 0x02, 0xfb, 0xfe, 0x06, 0x02, 0x10, 0x03, 0xf2, 0xfb,
  0xa6, 0x06, 0xfb, 0x09, 0xf9, 0x09, 0x11, 0xff, 0x00, 0x02, 0xfd, 0x0a,
  0x04, 0xf3, 0xf8, 0xf1, 0xf7, 0xf4, 0x0b, 0x05, 0x09, 0x01, 0xfe, 0x07,
  0xe7, 0xfa, 0x04, 0x05, 0xfe, 0xf2, 0xdf, 0x01, 0x01, 0x06, 0x02, 0xff,
  0xf7, 0xee, 0xfd, 0x06, 0x09, 0x03, 0xf6, 0x06, 0xff, 0xf7, 0xe8, 0x09,
  0xa9, 0x0a, 0xf6, 0x00, 0x08, 0xfe, 0x02, 0xff, 0x06, 0x03, 0x09, 0x09,
  0xfd, 0x01, 0xf1, 0xeb, 0x05, 0xf2, 0xfb, 0x0c, 0x08, 0x07, 0xf5, 0xff,
  0xea, 0x08, 0x0d, 0x08, 0xfe, 0x00, 0xe6, 0xf9, 0xf1, 0x00, 0x01, 0xff,
  0xff, 0xef, 0x00, 0xfc, 0x03, 0xf9, 0x00, 0x01, 0xfc, 0xfa, 0xf3, 0xfa,
  0xa8, 0x00, 0xf2, 0xfe, 0x05, 0x0f, 0x0d, 0x09, 0x03, 0x0c, 0x04, 0x00,
  0x00, 0x02, 0x03, 0xef, 0xf9, 0xfe, 0xfd, 0x02, 0x0d, 0xfa, 0xf1, 0x0d,
  0xe2, 0xfc, 0x06, 0xfb, 0x03, 0x00, 0xd9, 0xf9, 0xf7, 0x07, 0xf2, 0xfe,
  0xfc, 0x06, 0xf5, 0x02, 0x04, 0xf0, 0xfd, 0x06, 0x04, 0x06, 0xf6, 0x0c,
  0xb1, 0x13, 0xf8, 0x02, 0xfd, 0x04, 0x04, 0x0c, 0xfd, 0xfc, 0x0e, 0x0c,
  0xfe, 0xf2, 0xf9, 0xe4, 0xf5, 0xf8, 0x06, 0x0d, 0x0f, 0x04, 0xfe, 0x04,
  0xec, 0x0e, 0x02, 0x0a, 0x03, 0xfe, 0xdf, 0xf8, 0xf4, 0x03, 0xf5, 0xf9,
  0xf4, 0xfd, 0xfe, 0x06, 0xff, 0xf9, 0xf8, 0x0b, 0x0b, 0xfc, 0xfe, 0x02,
  0xb8, 0x08, 0xf1, 0x05, 0xf5, 0x1e, 0x09, 0x12, 0xf6, 0x02, 0x02, 0x0a,
  0x0d, 0xff, 0xf7, 0xea, 0x01, 0xf9, 0x12, 0x08, 0x03, 0x11, 0x05, 0x00,
  0x09, 0x0a, 0xf8, 0x00, 0xf3, 0x02, 0x0b, 0x03, 0xf5, 0xf9, 0xf8, 0x00,
  0xfb, 0x16, 0x07, 0x05, 0x12, 0xf9, 0xfe, 0x09, 0xfb, 0x0d, 0xfe, 0x07,
  0x01, 0x03, 0xfd, 0x06, 0x04, 0x0f, 0x05, 0xf9, 0x08, 0xff, 0xfd, 0x0a,
  0xff, 0xfd, 0x00, 0xfe, 0x03, 0xf2, 0x0b, 0x01, 0x08, 0x07, 0x01, 0x00,
  0xfc, 0x05, 0x03, 0x02, 0xf8, 0xf6, 0xfb, 0x08, 0xfb, 0xf6, 0xf5, 0xfb,
  0xf4, 0x13, 0x00, 0xfd, 0x0b, 0xfe, 0x03, 0x04, 0x02, 0xf9, 0x00, 0x01,
  0xde, 0xfb, 0xfd, 0x06, 0xfb, 0x0e, 0x10, 0x04, 0x0c, 0x04, 0xfc, 0xfc,
  0x04, 0x03, 0xfd, 0xf9, 0x06, 0x00, 0xfd, 0x0d, 0xff, 0x04, 0x02, 0x03,
  0x05, 0xfb, 0x08, 0x00, 0xf6, 0xf0, 0xff, 0xfe, 0xf6, 0x07, 0xfd, 0x06,
  0xff, 0x17, 0xf6, 0x04, 0x0f, 0xfc, 0xfa, 0x0f, 0xf9, 0xff, 0x03, 0xfe,
  0xdb, 0x00, 0x00, 0x07, 0xfa, 0x11, 0x02, 0xf6, 0xfe, 0x05, 0x0a, 0xfe,
  0x05, 0xff, 0xf4, 0xf6, 0xf7, 0xfe, 0x00, 0xff, 0x0b, 0x0a, 0x00, 0xfe,
  0xfe, 0xff, 0x0a, 0x04, 0x02, 0xf9, 0xf6, 0x04, 0xf8, 0xfb, 0x02, 0x08,
  0xf7, 0x16, 0xfd, 0xfd, 0x05, 0x04, 0x00, 0x01, 0x09, 0x0b, 0xfa, 0xff,
  0xf1, 0x08, 0x04, 0x06, 0x0a, 0x01, 0x03, 0xfb, 0x08, 0x0d, 0x0e, 0xfb,
  0x07, 0x0a, 0xf9, 0xfc, 0x00, 0xf3, 0x06, 0xfd, 0xf9, 0x09, 0x07, 0xfc,
  0xfa, 0x0d, 0x0b, 0xfe, 0x05, 0xf4, 0xf9, 0x05, 0xf8, 0x0c, 0xf6, 0x04,
  0x04, 0x0f, 0x05, 0xf8, 0x0b, 0xf4, 0x04, 0x0a, 0x09, 0xfe, 0xf9, 0xfc,
  0xf6, 0x01, 0xfc, 0xfa, 0xfc, 0x00, 0x02, 0xf1, 0x04, 0x0d, 0xfc, 0x0a,
  0x06, 0x0a, 0xfe, 0x01, 0x01, 0xfd, 0x08, 0xfc, 0xfc, 0xfe, 0xff, 0x09,
  0xfb, 0x00, 0x05, 0xf7, 0xfd, 0xf9, 0xfa, 0x0e, 0xf0, 0x05, 0x05, 0x09,
  0xfe, 0x1c, 0x00, 0xfb, 0x03, 0xfb, 0xfe, 0x06, 0x0b, 0x01, 0xf9, 0x07,
  0xf3, 0x08, 0xf6, 0x02, 0x04, 0x01, 0x07, 0xfa, 0x0d, 0xff, 0xff, 0xfc,
  0x03, 0x06, 0xf5, 0xf8, 0x02, 0xf4, 0x0d, 0xff, 0xfe, 0x02, 0x03, 0xf7,
  0x08, 0x07, 0x09, 0xff, 0xfd, 0xf6, 0xf4, 0x06, 0xff, 0x05, 0x08, 0xfe,
  0xfb, 0x0d, 0xf5, 0xf5, 0xff, 0xfe, 0x00, 0xfb, 0xfc, 0xff, 0xf6, 0x04,
  0xf6, 0x04, 0xfd, 0xfb, 0xfe, 0x0d, 0x0f, 0xfb, 0xfe, 0xfb, 0x03, 0x05,
  0x00, 0xff, 0x05, 0x08, 0xf9, 0xfd, 0x08, 0xfa, 0x07, 0x0a, 0x0c, 0x08,
  0x02, 0x00, 0x05, 0x06, 0xf6, 0xfe, 0xf7, 0xff, 0xf1, 0xfc, 0xfa, 0x09,
  0xf8, 0x0c, 0x02, 0xfd, 0xf9, 0xf6, 0xf2, 0x02, 0x03, 0x07, 0x02, 0x01,
  0xe8, 0x03, 0x02, 0x0a, 0xf8, 0x0a, 0x00, 0xff, 0x0a, 0xfd, 0x08, 0xfe,
  0xfe, 0x0b, 0x03, 0x05, 0x09, 0xf4, 0x0c, 0x0b, 0x02, 0xf9, 0x05, 0xf8,
  0x08, 0x04, 0x07, 0x00, 0xf8, 0x05, 0xf8, 0x02, 0xff, 0x04, 0xf6, 0xfb,
  0xfb, 0x0c, 0x01, 0x00, 0xfb, 0xf7, 0x01, 0x0d, 0x07, 0xfe, 0xf2, 0x0f,
  0xf4, 0x0a, 0x00, 0xfb, 0xfe, 0xfe, 0x10, 0xf4, 0xff, 0xfb, 0x0d, 0xfe,
  0x06, 0x05, 0x00, 0x01, 0xff, 0xfd, 0x06, 0xff, 0x01, 0x07, 0xff, 0xf4,
  0xfe, 0x02, 0xf8, 0x02, 0xfa, 0x03, 0xfe, 0xfa, 0x00, 0x0a, 0x02, 0xf9,
  0xfe, 0x0c, 0xf4, 0x05, 0x0c, 0x06, 0x04, 0x04, 0x01, 0x0a, 0xf8, 0xff,
  0xfa, 0x02, 0xf9, 0x02, 0xfc, 0x01, 0x12, 0xf6, 0x03, 0x04, 0x01, 0x0b,
  0x06, 0x03, 0x05, 0xfc, 0x06, 0xf8, 0x03, 0xfb, 0xff, 0x0b, 0x07, 0xf7,
  0xfd, 0xfc, 0x00, 0xfe, 0x0d, 0xf8, 0xf7, 0x01, 0xf1, 0xfe, 0xfd, 0xff,
  0xfd, 0x1c, 0xf8, 0x06, 0x0b, 0x0b, 0x03, 0x0d, 0x09, 0xfd, 0xf5, 0xfc,
  0xfd, 0x0b, 0xfb, 0x0c, 0x02, 0x0e, 0x03, 0xf9, 0x06, 0x12, 0x00, 0x00,
  0x06, 0x02, 0xf4, 0x01, 0xfa, 0xfa, 0x10, 0x00, 0xf9, 0x03, 0xf9, 0xfd,
  0xfa, 0xff, 0x00, 0x0a, 0xfc, 0x06, 0xfd, 0xfa, 0xf9, 0x08, 0xf6, 0x06,
  0xf4, 0x0b, 0x04, 0x05, 0xfc, 0x0c, 0xf7, 0xf8, 0x0f, 0xfb, 0xfc, 0x07,
  0xf4, 0xfe, 0xff, 0x05, 0x04, 0x0e, 0x0d, 0x03, 0x06, 0xfe, 0xfd, 0x00,
  0xfd, 0x00, 0x00, 0x03, 0x07, 0xf4, 0x04, 0x02, 0xfa, 0x06, 0x00, 0x00,
  0xf9, 0xfa, 0xfe, 0x02, 0x03, 0x03, 0xfa, 0xff, 0x00, 0x01, 0x09, 0x09,
  0x04, 0x02, 0x07, 0xf8, 0x0d, 0xf9, 0xfb, 0xfc, 0xfb, 0xff, 0xfe, 0x05,
  0xe4, 0xfa, 0x0a, 0x0b, 0xfc, 0x19, 0x03, 0x07, 0x00, 0xfe, 0x03, 0x02,
  0xf8, 0x0c, 0xf5, 0x06, 0x06, 0xf6, 0xff, 0xfb, 0x03, 0x0a, 0xfe, 0xfd,
  0x09, 0x05, 0x0c, 0x01, 0xfd, 0xfd, 0x03, 0x01, 0xf8, 0x01, 0xfd, 0x08,
  0x02, 0x13, 0xfc, 0xfe, 0x04, 0x05, 0xf3, 0x0c, 0x06, 0x07, 0x00, 0x01,
  0x04, 0xfb, 0xf7, 0x02, 0x04, 0x09, 0x10, 0x05, 0xfe, 0x01, 0xfd, 0x0a,
  0x06, 0x0b, 0xf9, 0xfa, 0x00, 0xf8, 0xff, 0x05, 0xf3, 0x0c, 0xfd, 0x02,
  0xfa, 0xf8, 0xfd, 0xff, 0x09, 0x02, 0x06, 0x00, 0xfa, 0x0d, 0xff, 0x08,
  0x02, 0x18, 0x05, 0x0b, 0x06, 0x0a, 0xf7, 0x07, 0x05, 0x09, 0x00, 0x08,
  0x12, 0x07, 0xff, 0xff, 0x09, 0x0e, 0x0c, 0xf7, 0x06, 0x0a, 0x07, 0x07,
  0x06, 0x11, 0x04, 0xf9, 0xf8, 0xfe, 0x12, 0x0c, 0x01, 0x00, 0xfe, 0x02,
  0xfe, 0x08, 0xf6, 0x02, 0xfe, 0xf7, 0xfd, 0x0b, 0xf2, 0x04, 0xf6, 0xfa,
  0x00, 0x0f, 0x05, 0xf9, 0xfd, 0xfb, 0x04, 0xff, 0x0a, 0x0c, 0x03, 0x0b,
  0x07, 0x03, 0x09, 0x07, 0x04, 0xfe, 0x11, 0xfc, 0x04, 0xfe, 0xfc, 0x0a,
  0xfe, 0x0a, 0x07, 0x01, 0xf5, 0xfc, 0x03, 0xfe, 0x0a, 0x0d, 0x06, 0xff,
  0xf9, 0x0a, 0xff, 0x0b, 0x03, 0x01, 0x06, 0x01, 0xf2, 0x02, 0xf6, 0xf7,
  0x03, 0x12, 0x07, 0xf9, 0x00, 0xf3, 0xf5, 0x02, 0x00, 0xfe, 0xf8, 0x0b,
  0x06, 0x08, 0x02, 0xfc, 0xfc, 0x00, 0x09, 0x04, 0x03, 0x07, 0x05, 0xff,
  0xf7, 0x01, 0x01, 0xf5, 0xfc, 0x04, 0xfc, 0xf7, 0xf4, 0x05, 0x06, 0x07,
  0x01, 0xfd, 0x0a, 0xfe, 0xff, 0x05, 0xfd, 0x06, 0xf7, 0x0f, 0x04, 0xfa,
  0xfe, 0x0c, 0xf5, 0xf6, 0xf7, 0xf7, 0x01, 0x08, 0x01, 0x00, 0xfb, 0x03,
  0xee, 0xfa, 0x07, 0x05, 0x00, 0x0d, 0x10, 0xfd, 0x08, 0xfc, 0xff, 0x0b,
  0x02, 0x0a, 0xfc, 0x02, 0x06, 0xf9, 0x09, 0xfa, 0x08, 0x04, 0xfb, 0xff,
  0x07, 0xfa, 0x0a, 0x03, 0x0c, 0xf6, 0x05, 0x08, 0x01, 0xff, 0xff, 0x06,
  0x01, 0x06, 0xfa, 0xfc, 0x08, 0xf7, 0x01, 0x00, 0xf6, 0x0a, 0xf8, 0x05,
  0xf9, 0x07, 0x01, 0x01, 0x0a, 0x00, 0x06, 0xf7, 0x03, 0x02, 0xff, 0x02,
  0x05, 0x00, 0x0c, 0xf2, 0x00, 0xf6, 0x10, 0x03, 0x0a, 0x06, 0x0c, 0xfb,
  0x02, 0x03, 0x04, 0x05, 0xfb, 0x06, 0x0a, 0x0c, 0xf0, 0xf9, 0xff, 0xff,
  0xf9, 0x08, 0xfc, 0xfe, 0xfe, 0x08, 0xf8, 0x0a, 0xfb, 0x0f, 0xfc, 0xfa,
  0xf7, 0x00, 0x01, 0x07, 0x04, 0x06, 0x09, 0xfb, 0x0a, 0x03, 0x04, 0x0d,
  0xf8, 0x0e, 0xf5, 0xf9, 0xf6, 0xf7, 0x07, 0x04, 0xf9, 0xfa, 0x0c, 0xf7,
  0x0a, 0xf9, 0x02, 0x05, 0x04, 0xf5, 0x01, 0x08, 0xfe, 0x0a, 0xf8, 0xfd,
  0xfb, 0x0f, 0x04, 0xfa, 0xf5, 0xf7, 0xf7, 0x02, 0x01, 0x04, 0xfd, 0x06,
